{
  "version": "1.0",
  "truncation": null,
  "padding": null,
  "added_tokens": [
    {
      "id": 0,
      "content": "[UNK]",
      "single_word": false,
      "lstrip": false,
      "rstrip": false,
      "normalized": false,
      "special": true
    },
    {
      "id": 1,
      "content": "[CLS]",
      "single_word": false,
      "lstrip": false,
      "rstrip": false,
      "normalized": false,
      "special": true
    },
    {
      "id": 2,
      "content": "[SEP]",
      "single_word": false,
      "lstrip": false,
      "rstrip": false,
      "normalized": false,
      "special": true
    },
    {
      "id": 3,
      "content": "[PAD]",
      "single_word": false,
      "lstrip": false,
      "rstrip": false,
      "normalized": false,
      "special": true
    },
    {
      "id": 4,
      "content": "[MASK]",
      "single_word": false,
      "lstrip": false,
      "rstrip": false,
      "normalized": false,
      "special": true
    }
  ],
  "normalizer": null,
  "pre_tokenizer": {
    "type": "Whitespace"
  },
  "post_processor": null,
  "decoder": null,
  "model": {
    "type": "BPE",
    "dropout": null,
    "unk_token": "[UNK]",
    "continuing_subword_prefix": null,
    "end_of_word_suffix": null,
    "fuse_unk": false,
    "byte_fallback": false,
    "vocab": {
      "[UNK]": 0,
      "[CLS]": 1,
      "[SEP]": 2,
      "[PAD]": 3,
      "[MASK]": 4,
      "!": 5,
      ",": 6,
      ".": 7,
      "0": 8,
      "1": 9,
      "2": 10,
      "3": 11,
      "4": 12,
      "5": 13,
      "6": 14,
      "7": 15,
      "8": 16,
      "9": 17,
      "?": 18,
      "ఁ": 19,
      "ం": 20,
      "ః": 21,
      "అ": 22,
      "ఆ": 23,
      "ఇ": 24,
      "ఈ": 25,
      "ఉ": 26,
      "ఊ": 27,
      "ఋ": 28,
      "ఌ": 29,
      "ఎ": 30,
      "ఏ": 31,
      "ఐ": 32,
      "఑": 33,
      "ఒ": 34,
      "ఓ": 35,
      "ఔ": 36,
      "క": 37,
      "ఖ": 38,
      "గ": 39,
      "ఘ": 40,
      "ఙ": 41,
      "చ": 42,
      "ఛ": 43,
      "జ": 44,
      "ఝ": 45,
      "ఞ": 46,
      "ట": 47,
      "ఠ": 48,
      "డ": 49,
      "ఢ": 50,
      "ణ": 51,
      "త": 52,
      "థ": 53,
      "ద": 54,
      "ధ": 55,
      "న": 56,
      "ప": 57,
      "ఫ": 58,
      "బ": 59,
      "భ": 60,
      "మ": 61,
      "య": 62,
      "ర": 63,
      "ఱ": 64,
      "ల": 65,
      "ళ": 66,
      "ఴ": 67,
      "వ": 68,
      "శ": 69,
      "ష": 70,
      "స": 71,
      "హ": 72,
      "ఽ": 73,
      "ా": 74,
      "ి": 75,
      "ీ": 76,
      "ు": 77,
      "ూ": 78,
      "ృ": 79,
      "ౄ": 80,
      "ె": 81,
      "ే": 82,
      "ై": 83,
      "౉": 84,
      "ొ": 85,
      "ో": 86,
      "ౌ": 87,
      "్": 88,
      "౎": 89,
      "ౕ": 90,
      "ౖ": 91,
      "ౘ": 92,
      "ౙ": 93,
      "ౠ": 94,
      "౦": 95,
      "౧": 96,
      "౨": 97,
      "౩": 98,
      "౪": 99,
      "౫": 100,
      "౬": 101,
      "౭": 102,
      "౮": 103,
      "౯": 104,
      "ని": 105,
      "ార": 106,
      "్ర": 107,
      "న్": 108,
      "ంద": 109,
      "స్": 110,
      "లు": 111,
      "ర్": 112,
      "కు": 113,
      "లో": 114,
      "్య": 115,
      "న్న": 116,
      "ంచ": 117,
      "గా": 118,
      "ారు": 119,
      "ను": 120,
      "ాల": 121,
      "క్": 122,
      "ంది": 123,
      "ట్": 124,
      "ప్ర": 125,
      "రి": 126,
      "వి": 127,
      "తు": 128,
      "ల్": 129,
      "చే": 130,
      "డు": 131,
      "కి": 132,
      "టి": 133,
      "మా": 134,
      "సి": 135,
      "డి": 136,
      "ంత": 137,
      "యి": 138,
      "రు": 139,
      "త్": 140,
      "ప్": 141,
      "కా": 142,
      "లి": 143,
      "రా": 144,
      "తి": 145,
      "సు": 146,
      "టు": 147,
      "వా": 148,
      "నే": 149,
      "ది": 150,
      "పు": 151,
      "నా": 152,
      "దు": 153,
      "ంచి": 154,
      "గు": 155,
      "కో": 156,
      "లా": 157,
      "చి": 158,
      "ంగా": 159,
      "ద్": 160,
      "ార్": 161,
      "పో": 162,
      "డా": 163,
      "ము": 164,
      "ంట": 165,
      "లే": 166,
      "ంలో": 167,
      "తో": 168,
      "తున్న": 169,
      "చ్": 170,
      "యా": 171,
      "పి": 172,
      "కొ": 173,
      "న్ని": 174,
      "సం": 175,
      "పా": 176,
      "మి": 177,
      "ండ": 178,
      "వు": 179,
      "ష్": 180,
      "తా": 181,
      "త్ర": 182,
      "గి": 183,
      "్యా": 184,
      "వే": 185,
      "దే": 186,
      "కే": 187,
      "తె": 188,
      "..": 189,
      "ందు": 190,
      "క్ష": 191,
      "దా": 192,
      "రో": 193,
      "కూ": 194,
      "ంగ": 195,
      "ళ్": 196,
      "పె": 197,
      "ధి": 198,
      "తీ": 199,
      "నికి": 200,
      "డ్": 201,
      "చె": 202,
      "టీ": 203,
      "సా": 204,
      "నీ": 205,
      "ారి": 206,
      "మె": 207,
      "తే": 208,
      "పై": 209,
      "న్నారు": 210,
      "వె": 211,
      "మీ": 212,
      "స్తున్న": 213,
      "ప్ప": 214,
      "మ్": 215,
      "శా": 216,
      "లీ": 217,
      "బా": 218,
      "క్క": 219,
      "ాల్": 220,
      "స్థ": 221,
      "ాయి": 222,
      "దీ": 223,
      "లకు": 224,
      "ంతో": 225,
      "లను": 226,
      "యం": 227,
      "సీ": 228,
      "ంచారు": 229,
      "రె": 230,
      "మే": 231,
      "ైన": 232,
      "వర": 233,
      "ష్ట": 234,
      "కూడా": 235,
      "ారం": 236,
      "్రి": 237,
      "వీ": 238,
      "వచ్": 239,
      "యు": 240,
      "డం": 241,
      "హి": 242,
      "వం": 243,
      "తం": 244,
      "ప్పు": 245,
      "ట్ట": 246,
      "చు": 247,
      "ల్ల": 248,
      "స్తు": 249,
      "పీ": 250,
      "రూ": 251,
      "ఉన్న": 252,
      "ండి": 253,
      "మో": 254,
      "జా": 255,
      "చేసి": 256,
      "దేశ": 257,
      "పరి": 258,
      "ద్ద": 259,
      "నం": 260,
      "ాలి": 261,
      "గ్": 262,
      "నిర్": 263,
      "స్త": 264,
      "సుకు": 265,
      "వ్య": 266,
      "అయి": 267,
      "బ్": 268,
      "కార": 269,
      "ట్లు": 270,
      "చేయ": 271,
      "జీ": 272,
      "భా": 273,
      "ఒక": 274,
      "ంగ్": 275,
      "ట్టు": 276,
      "ల్లో": 277,
      "సిని": 278,
      "లేదు": 279,
      "ంటు": 280,
      "చూ": 281,
      "ాడు": 282,
      "యన": 283,
      "తెలి": 284,
      "ధా": 285,
      "వర్": 286,
      "జు": 287,
      "్రా": 288,
      "కీ": 289,
      "తన": 290,
      "భార": 291,
      "జి": 292,
      "ందుకు": 293,
      "ంచిన": 294,
      "హా": 295,
      "బు": 296,
      "సినిమా": 297,
      "ంటే": 298,
      "పే": 299,
      "రే": 300,
      "శారు": 301,
      "భు": 302,
      "ఆయన": 303,
      "ంటి": 304,
      "కె": 305,
      "వ్": 306,
      "శ్": 307,
      "ట్టి": 308,
      "ప్రా": 309,
      "రం": 310,
      "ఆర్": 311,
      "ారా": 312,
      "క్ర": 313,
      "మరి": 314,
      "భి": 315,
      "రీ": 316,
      "సమ": 317,
      "యో": 318,
      "త్త": 319,
      "వై": 320,
      "ధ్య": 321,
      "అత": 322,
      "సే": 323,
      "మార్": 324,
      "స్ట": 325,
      "మొ": 326,
      "మూ": 327,
      "మైన": 328,
      "వారి": 329,
      "జ్": 330,
      "ంద్ర": 331,
      "ప్రభు": 332,
      "ద్య": 333,
      "అవ": 334,
      "నె": 335,
      "పూ": 336,
      "ప్రభుత్": 337,
      "విష": 338,
      "నుంచి": 339,
      "ంచు": 340,
      "పోలీ": 341,
      "ందని": 342,
      "స్తా": 343,
      "బీ": 344,
      "రిగి": 345,
      "ాలను": 346,
      "బి": 347,
      "సె": 348,
      "ాలా": 349,
      "చేశారు": 350,
      "ాలని": 351,
      "మంత": 352,
      "అని": 353,
      "శి": 354,
      "అధి": 355,
      "పార్": 356,
      "మంది": 357,
      "రుగు": 358,
      "పొ": 359,
      "పోలీసు": 360,
      "య్య": 361,
      "కోవ": 362,
      "క్కు": 363,
      "అయితే": 364,
      "తోంది": 365,
      "మని": 366,
      "ఉండ": 367,
      "ఇది": 368,
      "దర్": 369,
      "ళ్ళ": 370,
      "డీ": 371,
      "అను": 372,
      "రాజ": 373,
      "సమా": 374,
      "ప్పటి": 375,
      "చిత్ర": 376,
      "ఖ్య": 377,
      "ంచింది": 378,
      "త్య": 379,
      "మన": 380,
      "తర": 381,
      "ణా": 382,
      "బం": 383,
      "వాత": 384,
      "శ్ర": 385,
      "ఉంది": 386,
      "ంచే": 387,
      "రాష్ట": 388,
      "గ్ర": 389,
      "ండా": 390,
      "స్తున్నారు": 391,
      "ప్పుడు": 392,
      "ట్ల": 393,
      "ులు": 394,
      "చాలా": 395,
      "పాటు": 396,
      "కాల": 397,
      "జే": 398,
      "ాల్లో": 399,
      "రోజు": 400,
      "షన్": 401,
      "అంత": 402,
      "చర్": 403,
      "తెలు": 404,
      "కానీ": 405,
      "డే": 406,
      "ఆమె": 407,
      "ఎం": 408,
      "మంత్రి": 409,
      "రణ": 410,
      "20": 411,
      "డానికి": 412,
      "ర్తి": 413,
      "కల": 414,
      "ెస్": 415,
      "ళ్ల": 416,
      "చెప్ప": 417,
      "ప్రతి": 418,
      "ండు": 419,
      "ఎస్": 420,
      "టర్": 421,
      "వ్యా": 422,
      "ంట్": 423,
      "న్నా": 424,
      "పార్టీ": 425,
      "రాష్ట్ర": 426,
      "కోసం": 427,
      "వచ్చి": 428,
      "కర్": 429,
      "టన": 430,
      "ప్రక": 431,
      "మ్మ": 432,
      "తుంది": 433,
      "కలి": 434,
      "కుండా": 435,
      "లక్ష": 436,
      "వారు": 437,
      "చ్చి": 438,
      "మాత్ర": 439,
      "ండ్": 440,
      "స్థా": 441,
      "లాంటి": 442,
      "గొ": 443,
      "అనే": 444,
      "వల": 445,
      "వరి": 446,
      "కం": 447,
      "గే": 448,
      "పోయి": 449,
      "కారు": 450,
      "ల్లి": 451,
      "స్ప": 452,
      "పోలీసులు": 453,
      "చ్చ": 454,
      "చేసిన": 455,
      "త్రి": 456,
      "గో": 457,
      "మరియు": 458,
      "తమ": 459,
      "ారని": 460,
      "టా": 461,
      "షి": 462,
      "శం": 463,
      "పారు": 464,
      "జరిగి": 465,
      "కేసు": 466,
      "ద్ధ": 467,
      "ఎన్ని": 468,
      "లతో": 469,
      "స్తుంది": 470,
      "ప్రధా": 471,
      "ఫ్": 472,
      "పడి": 473,
      "యంలో": 474,
      "సిన": 475,
      "క్తి": 476,
      "సభ": 477,
      "దని": 478,
      "తూ": 479,
      "కార్య": 480,
      "లోని": 481,
      "సర": 482,
      "నాలు": 483,
      "ంబ": 484,
      "తీసుకు": 485,
      "అభి": 486,
      "ప్రభుత్వం": 487,
      "చేసుకు": 488,
      "దల": 489,
      "మరో": 490,
      "కాదు": 491,
      "00": 492,
      "ణి": 493,
      "సూ": 494,
      "తులు": 495,
      "అందు": 496,
      "స్థి": 497,
      "ప్రజ": 498,
      "ఉంటు": 499,
      "తర్": 500,
      "ంటూ": 501,
      "నూ": 502,
      "బో": 503,
      "రెండు": 504,
      "పని": 505,
      "రై": 506,
      "వరకు": 507,
      "జె": 508,
      "సో": 509,
      "తెలిపారు": 510,
      "క్కడ": 511,
      "ాలకు": 512,
      "థి": 513,
      "కరి": 514,
      "ముఖ్య": 515,
      "డ్డి": 516,
      "స్తూ": 517,
      "్రెస్": 518,
      "ైనా": 519,
      "డంతో": 520,
      "అంద": 521,
      "విజ": 522,
      "దర్శ": 523,
      "కృ": 524,
      "తర్వాత": 525,
      "కాంగ": 526,
      "ప్పి": 527,
      "తంగా": 528,
      "అది": 529,
      "ట్లా": 530,
      "దీంతో": 531,
      "న్స్": 532,
      "కున్న": 533,
      "కార్": 534,
      "ణం": 535,
      "పర్": 536,
      "టం": 537,
      "ందే": 538,
      "కేంద్ర": 539,
      "స్తోంది": 540,
      "ల్లా": 541,
      "కాంగ్రెస్": 542,
      "బె": 543,
      "క్కువ": 544,
      "గురి": 545,
      "కులు": 546,
      "ాలు": 547,
      "ఫి": 548,
      "సంబం": 549,
      "ఇప్పటి": 550,
      "వ్యవ": 551,
      "ఘటన": 552,
      "సై": 553,
      "సర్": 554,
      "నేను": 555,
      "వహి": 556,
      "లంగా": 557,
      "శ్రీ": 558,
      "కంగా": 559,
      "పెద్ద": 560,
      "సారి": 561,
      "జేపీ": 562,
      "మధ్య": 563,
      "త్స": 564,
      "దీని": 565,
      "ఇం": 566,
      "స్తే": 567,
      "ద్ర": 568,
      "మృ": 569,
      "అన్నారు": 570,
      "ఆరో": 571,
      "బీజేపీ": 572,
      "ఏర్": 573,
      "్యూ": 574,
      "మాట్లా": 575,
      "ళ్లు": 576,
      "మహ": 577,
      "గం": 578,
      "అలా": 579,
      "తలు": 580,
      "వ్వ": 581,
      "వచ్చు": 582,
      "నో": 583,
      "మంచి": 584,
      "తీసు": 585,
      "లలో": 586,
      "వారం": 587,
      "కోర్": 588,
      "మై": 589,
      "డ్డ": 590,
      "యూ": 591,
      "ర్కొ": 592,
      "పడు": 593,
      "తొ": 594,
      "ందర్": 595,
      "చేస్తున్న": 596,
      "అంది": 597,
      "గత": 598,
      "తున్నారు": 599,
      "పం": 600,
      "ఇక": 601,
      "నిపి": 602,
      "బ్బ": 603,
      "నటి": 604,
      "హీ": 605,
      "యే": 606,
      "యలు": 607,
      "తరు": 608,
      "పాల్": 609,
      "ముందు": 610,
      "విద్య": 611,
      "కొత్త": 612,
      "త్తు": 613,
      "అర్": 614,
      "లె": 615,
      "ప్రాంత": 616,
      "కపో": 617,
      "పంచ": 618,
      "వల్ల": 619,
      "టె": 620,
      "పరిస్థి": 621,
      "మర్": 622,
      "విధ": 623,
      "లోకి": 624,
      "ంధ": 625,
      "టో": 626,
      "ుల": 627,
      "పడ": 628,
      "చేసింది": 629,
      "సరి": 630,
      "అన": 631,
      "వ్ర": 632,
      "కొన్ని": 633,
      "క్రమ": 634,
      "వారా": 635,
      "అన్న": 636,
      "తీయ": 637,
      "వృ": 638,
      "హో": 639,
      "కర": 640,
      "ంపు": 641,
      "్యం": 642,
      "భారత": 643,
      "హై": 644,
      "ళ్లి": 645,
      "జన": 646,
      "ారణ": 647,
      "ట్ర": 648,
      "ఉంటుంది": 649,
      "మొద": 650,
      "ందిన": 651,
      "క్షి": 652,
      "నుండి": 653,
      "పెట్ట": 654,
      "ఎలా": 655,
      "అవకా": 656,
      "ప్రే": 657,
      "హు": 658,
      "ఉన్నాయి": 659,
      "క్రి": 660,
      "క్కి": 661,
      "దో": 662,
      "పూర్తి": 663,
      "చారం": 664,
      "య్యా": 665,
      "వంటి": 666,
      "బ్యా": 667,
      "గ్రా": 668,
      "కోర్టు": 669,
      "తీవ్ర": 670,
      "కలు": 671,
      "యని": 672,
      "అన్ని": 673,
      "మీద": 674,
      "న్ను": 675,
      "ంచడం": 676,
      "మాత్రం": 677,
      "త్తి": 678,
      "తెలంగా": 679,
      "య్": 680,
      "కల్": 681,
      "కావ": 682,
      "నమో": 683,
      "బడి": 684,
      "మీరు": 685,
      "ద్వారా": 686,
      "ఖా": 687,
      "ప్రారం": 688,
      "ందో": 689,
      "నని": 690,
      "చేసే": 691,
      "దం": 692,
      "విడు": 693,
      "ప్రమా": 694,
      "తెలంగాణ": 695,
      "పిల్ల": 696,
      "దాని": 697,
      "చేశా": 698,
      "విషయం": 699,
      "స్వా": 700,
      "పూర్": 701,
      "ఉంట": 702,
      "నలు": 703,
      "గ్గ": 704,
      "నిర్ణ": 705,
      "లం": 706,
      "గురు": 707,
      "స్తారు": 708,
      "భూ": 709,
      "వాటి": 710,
      "అవు": 711,
      "నగ": 712,
      "ఎక్కువ": 713,
      "అం": 714,
      "కుటు": 715,
      "స్ట్": 716,
      "హ్": 717,
      "నెల": 718,
      "గురించి": 719,
      "ంచాడు": 720,
      "లుగా": 721,
      "జిల్లా": 722,
      "సంబంధి": 723,
      "ఉప": 724,
      "పట్ట": 725,
      "అధికారు": 726,
      "ఎదు": 727,
      "హీరో": 728,
      "రెడ్డి": 729,
      "సందర్": 730,
      "మహి": 731,
      "జీవి": 732,
      "కనిపి": 733,
      "న్యా": 734,
      "పథ": 735,
      "షా": 736,
      "ఫో": 737,
      "చో": 738,
      "ష్టం": 739,
      "ఒక్క": 740,
      "ప్రపంచ": 741,
      "పేర్కొ": 742,
      "నాయ": 743,
      "సమస్": 744,
      "పలు": 745,
      "శాఖ": 746,
      "విడుదల": 747,
      "ఇద్ద": 748,
      "జర": 749,
      "లై": 750,
      "త్తం": 751,
      "ప్రత్య": 752,
      "హం": 753,
      "చెందిన": 754,
      "రాజకీ": 755,
      "ంచుకు": 756,
      "లోనే": 757,
      "ప్రధాన": 758,
      "మాన": 759,
      "సాధి": 760,
      "తుల": 761,
      "బాబు": 762,
      "ద్దు": 763,
      "మహిళ": 764,
      "యత్": 765,
      "చెప్పారు": 766,
      "వచ్చ": 767,
      "జరుగు": 768,
      "దూ": 769,
      "నిర్వహి": 770,
      "ర్చు": 771,
      "మారు": 772,
      "ద్ధి": 773,
      "గె": 774,
      "ంలోని": 775,
      "ందా": 776,
      "వార": 777,
      "సింది": 778,
      "వ్యక్": 779,
      "పాత్ర": 780,
      "సంస్థ": 781,
      "శు": 782,
      "తల": 783,
      "కొన": 784,
      "పర": 785,
      "లేదని": 786,
      "నియ": 787,
      "ప్రకటి": 788,
      "ఉద్య": 789,
      "పాల": 790,
      "విచ": 791,
      "స్టు": 792,
      "యాన్ని": 793,
      "భారీ": 794,
      "చేసు": 795,
      "నర్": 796,
      "నున్న": 797,
      "తెలుగు": 798,
      "కొని": 799,
      "ప్రభుత్వ": 800,
      "ార్థ": 801,
      "దృ": 802,
      "మాట": 803,
      "పోయింది": 804,
      "రావ": 805,
      "ల్లు": 806,
      "రాలు": 807,
      "కథ": 808,
      "ఫీ": 809,
      "గల": 810,
      "హె": 811,
      "ఇప్పుడు": 812,
      "బాద్": 813,
      "ిల్": 814,
      "తెలియ": 815,
      "రుకు": 816,
      "ష్టి": 817,
      "కెట్": 818,
      "చిన్న": 819,
      "క్స్": 820,
      "చంద్ర": 821,
      "డియా": 822,
      "ష్ణ": 823,
      "సభ్య": 824,
      "ధర": 825,
      "సంగ": 826,
      "స్వ": 827,
      "ుడు": 828,
      "ఏమి": 829,
      "యాల": 830,
      "19": 831,
      "గిన": 832,
      "కారణ": 833,
      "జరిగిన": 834,
      "ణాలు": 835,
      "మం": 836,
      "బయ": 837,
      "కోట్ల": 838,
      "యాలు": 839,
      "ప్రయత్": 840,
      "సహా": 841,
      "భారత్": 842,
      "నమోదు": 843,
      "నాకు": 844,
      "ప్రశ్": 845,
      "మాత్రమే": 846,
      "పద": 847,
      "వార్": 848,
      "ఎమ్": 849,
      "ంతా": 850,
      "తున్నాయి": 851,
      "10": 852,
      "ప్రస్తు": 853,
      "వచ్చిన": 854,
      "క్టర్": 855,
      "పేరు": 856,
      "వద్ద": 857,
      "ంతి": 858,
      "తగ్": 859,
      "ఎన్": 860,
      "అధ్య": 861,
      "ఇవ్వ": 862,
      "వెల్ల": 863,
      "వెంట": 864,
      "ధు": 865,
      "అతని": 866,
      "సమావే": 867,
      "నిర్మా": 868,
      "ఇలా": 869,
      "ఎంత": 870,
      "జరి": 871,
      "వరు": 872,
      "శాతం": 873,
      "సందర్భ": 874,
      "క్షణ": 875,
      "లపై": 876,
      "శీ": 877,
      "ంటారు": 878,
      "బ్ర": 879,
      "మూడు": 880,
      "సమయంలో": 881,
      "గానే": 882,
      "ణ్": 883,
      "చిత్రం": 884,
      "కొనసా": 885,
      "అదే": 886,
      "పరిస్థితి": 887,
      "ట్టుకు": 888,
      "ఎన్నిక": 889,
      "త్వ": 890,
      "టే": 891,
      "మీడియా": 892,
      "తప్ప": 893,
      "తను": 894,
      "అంటే": 895,
      "తాను": 896,
      "మ్యా": 897,
      "లేదా": 898,
      "ప్రత్యే": 899,
      "కుమార్": 900,
      "డె": 901,
      "ప్రధాని": 902,
      "తరువాత": 903,
      "సిందే": 904,
      "జాతీయ": 905,
      "రకు": 906,
      "దారు": 907,
      "వన్": 908,
      "వైపు": 909,
      "తరలి": 910,
      "రాజకీయ": 911,
      "కుడు": 912,
      "నేత": 913,
      "రెండ": 914,
      "క్కడి": 915,
      "వారికి": 916,
      "పడ్డ": 917,
      "వ్యక్తి": 918,
      "ారీ": 919,
      "కుల": 920,
      "గ్య": 921,
      "చేస్తున్నారు": 922,
      "ఉన్నారు": 923,
      "వచ్చే": 924,
      "చూడ": 925,
      "చ్చు": 926,
      "న్నీ": 927,
      "వెల్లడి": 928,
      "తల్లి": 929,
      "యారు": 930,
      "సమాచారం": 931,
      "జ్ఞ": 932,
      "మొత్తం": 933,
      "దేశా": 934,
      "అవస": 935,
      "భ్య": 936,
      "అధిక": 937,
      "టింగ్": 938,
      "కోట్లు": 939,
      "మెంట్": 940,
      "జర్": 941,
      "ంచాలని": 942,
      "ఉద్యో": 943,
      "ఆలో": 944,
      "కాలు": 945,
      "ఇంకా": 946,
      "రంగ": 947,
      "ముఖ": 948,
      "చా": 949,
      "పరీ": 950,
      "ఏర్పాటు": 951,
      "ఎలాంటి": 952,
      "సమస్య": 953,
      "ఇచ్చి": 954,
      "మోదీ": 955,
      "లక్షల": 956,
      "యన్": 957,
      "ర్యా": 958,
      "అత్య": 959,
      "స్థాయి": 960,
      "నియో": 961,
      "అవకాశం": 962,
      "పరుగు": 963,
      "జో": 964,
      "అధికారులు": 965,
      "దేశంలో": 966,
      "నిజ": 967,
      "వృద్ధి": 968,
      "గంట": 969,
      "ళి": 970,
      "పోయా": 971,
      "యె": 972,
      "కాగా": 973,
      "పెట్టి": 974,
      "...": 975,
      "50": 976,
      "బట్టి": 977,
      "పక్ష": 978,
      "సీఎం": 979,
      "ఉత్త": 980,
      "మొదటి": 981,
      "స్తున్నా": 982,
      "దొ": 983,
      "భాగ": 984,
      "సహ": 985,
      "అనేక": 986,
      "టై": 987,
      "ఆధ": 988,
      "నిర్మి": 989,
      "ఇండి": 990,
      "జూ": 991,
      "ంతరం": 992,
      "కలిసి": 993,
      "ముఖ్యమంత్రి": 994,
      "అవసరం": 995,
      "కలిగి": 996,
      "శాల": 997,
      "దగ్గ": 998,
      "సింగ్": 999,
      "త్వర": 1000,
      "ఇతర": 1001,
      "ిల్లీ": 1002,
      "ఇందు": 1003,
      "వంత": 1004,
      "ఢిల్లీ": 1005,
      "ప్రదేశ": 1006,
      "వచ్చింది": 1007,
      "మాట్లాడు": 1008,
      "ంటున్న": 1009,
      "ఎమ్మె": 1010,
      "ళ్ళు": 1011,
      "చెప్పి": 1012,
      "ాన్ని": 1013,
      "ఎందుకు": 1014,
      "ఆర్థి": 1015,
      "కుటుంబ": 1016,
      "సన": 1017,
      "ఇప్పటికే": 1018,
      "యువ": 1019,
      "వులు": 1020,
      "జన్": 1021,
      "ాలే": 1022,
      "ల్య": 1023,
      "అభ్య": 1024,
      "తున్నా": 1025,
      "చెబు": 1026,
      "మారి": 1027,
      "మృతి": 1028,
      "య్యారు": 1029,
      "మెరి": 1030,
      "లక": 1031,
      "ఎన్నికల": 1032,
      "తాజా": 1033,
      "పాల్గొ": 1034,
      "బయట": 1035,
      "డో": 1036,
      "అధ్యక్ష": 1037,
      "చీ": 1038,
      "అతను": 1039,
      "మరణ": 1040,
      "పట్టి": 1041,
      "అలాగే": 1042,
      "అందుకు": 1043,
      "కోవాలి": 1044,
      "వెంటనే": 1045,
      "ంచా": 1046,
      "తెర": 1047,
      "మనం": 1048,
      "ప్రజలు": 1049,
      "ఉన్నా": 1050,
      "ఉండే": 1051,
      "అమ": 1052,
      "వాహ": 1053,
      "లేని": 1054,
      "ఇంటి": 1055,
      "ప్రభా": 1056,
      "గుర్తి": 1057,
      "ఎంతో": 1058,
      "ంటర్": 1059,
      "గాంధ": 1060,
      "స్సు": 1061,
      "పోటీ": 1062,
      "ఇంత": 1063,
      "సంవ": 1064,
      "హరి": 1065,
      "లేక": 1066,
      "జగ": 1067,
      "ంచాలి": 1068,
      "కాని": 1069,
      "అక్కడ": 1070,
      "దరా": 1071,
      "తీర్": 1072,
      "విచారణ": 1073,
      "గాంధీ": 1074,
      "దేశం": 1075,
      "దన": 1076,
      "యాప్": 1077,
      "సందర్భంగా": 1078,
      "సిద్ధ": 1079,
      "అంటూ": 1080,
      "సార్": 1081,
      "ర్మ": 1082,
      "ఏం": 1083,
      "కంటే": 1084,
      "నుంది": 1085,
      "నంద": 1086,
      "ఇదే": 1087,
      "డ్డు": 1088,
      "జరిగింది": 1089,
      "త్వం": 1090,
      "రికి": 1091,
      "అస": 1092,
      "ప్రస్తుతం": 1093,
      "ఆర్థిక": 1094,
      "తాయి": 1095,
      "విశ్": 1096,
      "స్టే": 1097,
      "తమి": 1098,
      "అమెరి": 1099,
      "బల": 1100,
      "డియో": 1101,
      "ాల్సిన": 1102,
      "మరింత": 1103,
      "చేయడం": 1104,
      "సంఖ్య": 1105,
      "వైద్య": 1106,
      "కృష్ణ": 1107,
      "లేకపో": 1108,
      "వ్యక్తం": 1109,
      "ల్ని": 1110,
      "య్యాయి": 1111,
      "ఫలి": 1112,
      "ంటా": 1113,
      "బాల": 1114,
      "ల్స్": 1115,
      "్యంలో": 1116,
      "బ్బు": 1117,
      "ంటున్నారు": 1118,
      "వెళ్లి": 1119,
      "శే": 1120,
      "తారు": 1121,
      "చేస్తా": 1122,
      "న్యాయ": 1123,
      "ానికి": 1124,
      "ప్రత్యేక": 1125,
      "ఇద్దరు": 1126,
      "డై": 1127,
      "మర": 1128,
      "ంచడానికి": 1129,
      "ప్రీ": 1130,
      "నులు": 1131,
      "కొంత": 1132,
      "పడ్డారు": 1133,
      "ాల్సి": 1134,
      "నిక": 1135,
      "జై": 1136,
      "చ్చారు": 1137,
      "యొ": 1138,
      "కళ": 1139,
      "వేల": 1140,
      "వాడు": 1141,
      "ధన": 1142,
      "వ్యాప్": 1143,
      "డుగు": 1144,
      "కూడ": 1145,
      "స్థాన": 1146,
      "హైదరా": 1147,
      "స్ట్ర": 1148,
      "డ్డా": 1149,
      "షే": 1150,
      "రావు": 1151,
      "అతి": 1152,
      "దర్శక": 1153,
      "రంగా": 1154,
      "స్టార్": 1155,
      "టీఆర్": 1156,
      "సంబంధించిన": 1157,
      "చర్యలు": 1158,
      "ఇక్కడ": 1159,
      "బాగా": 1160,
      "వారిని": 1161,
      "వన": 1162,
      "తొలి": 1163,
      "యిన్": 1164,
      "ఉందని": 1165,
      "ప్రారంభి": 1166,
      "గర్": 1167,
      "ల్యే": 1168,
      "ాలతో": 1169,
      "ఉత్": 1170,
      "యంగా": 1171,
      "పత్రి": 1172,
      "ఎమ్మెల్యే": 1173,
      "కోవడం": 1174,
      "వీటి": 1175,
      "ఆల": 1176,
      "ర్లు": 1177,
      "ప్రదేశ్": 1178,
      "లువ": 1179,
      "నున్నారు": 1180,
      "15": 1181,
      "ఇందులో": 1182,
      "అంతే": 1183,
      "డిగా": 1184,
      "చికి": 1185,
      "ఉపయో": 1186,
      "వెళ్ళ": 1187,
      "అమెరికా": 1188,
      "అవి": 1189,
      "షల్": 1190,
      "ంక": 1191,
      "నిమి": 1192,
      "న్నాడు": 1193,
      "బర్": 1194,
      "నేపథ": 1195,
      "మ్యాచ్": 1196,
      "ద్ది": 1197,
      "పాడు": 1198,
      "దాపు": 1199,
      "నాడు": 1200,
      "తెలిసిందే": 1201,
      "కరణ": 1202,
      "అయిన": 1203,
      "మేరకు": 1204,
      "వర్గా": 1205,
      "ందన్నారు": 1206,
      "కమి": 1207,
      "ప్రయా": 1208,
      "లభి": 1209,
      "న్య": 1210,
      "అధికార": 1211,
      "అభ్యర్": 1212,
      "డని": 1213,
      "12": 1214,
      "భావి": 1215,
      "పరీక్ష": 1216,
      "హైదరాబాద్": 1217,
      "ఉద": 1218,
      "పేర్కొన్నారు": 1219,
      "గాయ": 1220,
      "వో": 1221,
      "డికి": 1222,
      "ంప": 1223,
      "అరె": 1224,
      "డూ": 1225,
      "ఎవరి": 1226,
      "పెట్టు": 1227,
      "దర్యాప్": 1228,
      "చికిత్స": 1229,
      "దర్యాప్తు": 1230,
      "డాది": 1231,
      "ఆత్": 1232,
      "దాదాపు": 1233,
      "కను": 1234,
      "తిరిగి": 1235,
      "వెళ్": 1236,
      "తగ్గి": 1237,
      "మ్ము": 1238,
      "ప్రయో": 1239,
      "కేవల": 1240,
      "చేశాడు": 1241,
      "నిలి": 1242,
      "జరు": 1243,
      "అభివృద్ధి": 1244,
      "చట్ట": 1245,
      "భాష": 1246,
      "స్త్ర": 1247,
      "రూపా": 1248,
      "సొ": 1249,
      "కేవలం": 1250,
      "తమిళ": 1251,
      "ఇలాంటి": 1252,
      "టీడీ": 1253,
      "చన": 1254,
      "పెరుగు": 1255,
      "విధంగా": 1256,
      "విషయంలో": 1257,
      "చంద్రబాబు": 1258,
      "ఇటీ": 1259,
      "అనంతరం": 1260,
      "ధం": 1261,
      "స్తున్నాయి": 1262,
      "మాజీ": 1263,
      "కొంద": 1264,
      "జరగ": 1265,
      "ఎన్నికల్లో": 1266,
      "కార్యక్రమ": 1267,
      "ప్రారంభ": 1268,
      "నింది": 1269,
      "విమర్": 1270,
      "14": 1271,
      "ప్రభుత్వా": 1272,
      "డిని": 1273,
      "ాలలో": 1274,
      "నరే": 1275,
      "కాలే": 1276,
      "కారం": 1277,
      "ందోళ": 1278,
      "గుర్": 1279,
      "రాజు": 1280,
      "చర్చ": 1281,
      "య్యి": 1282,
      "సౌ": 1283,
      "విధా": 1284,
      "యొక్క": 1285,
      "మోడీ": 1286,
      "లక్": 1287,
      "జెక్": 1288,
      "కాకుండా": 1289,
      "పెరిగి": 1290,
      "బ్యాం": 1291,
      "మండ": 1292,
      "మిక": 1293,
      "మతి": 1294,
      "సంఘ": 1295,
      "ంత్ర": 1296,
      "ారె": 1297,
      "వేది": 1298,
      "ట్స్": 1299,
      "రామ": 1300,
      "వ్యాప్తంగా": 1301,
      "రాహు": 1302,
      "భద్ర": 1303,
      "నీటి": 1304,
      "సీఆర్": 1305,
      "వ్వు": 1306,
      "నేపథ్యంలో": 1307,
      "తాజాగా": 1308,
      "క్షన్": 1309,
      "బ్బంది": 1310,
      "పోయిన": 1311,
      "రాహుల్": 1312,
      "లేకుండా": 1313,
      "చెప్": 1314,
      "ర్యాదు": 1315,
      "న్నాయి": 1316,
      "భార్య": 1317,
      "కాబట్టి": 1318,
      "ండ్ర": 1319,
      "విద్యార్థ": 1320,
      "కీలక": 1321,
      "నివా": 1322,
      "సినిమాలో": 1323,
      "వివా": 1324,
      "పించారు": 1325,
      "చిన": 1326,
      "30": 1327,
      "వుడ్": 1328,
      "ఫిర్యాదు": 1329,
      "అందరి": 1330,
      "గౌ": 1331,
      "తెలుసు": 1332,
      "ఎన్న": 1333,
      "బై": 1334,
      "చోటు": 1335,
      "లూ": 1336,
      "తిరే": 1337,
      "సీపీ": 1338,
      "పులు": 1339,
      "వీడియో": 1340,
      "సమీ": 1341,
      "పాకి": 1342,
      "అక్కడి": 1343,
      "ఇండియా": 1344,
      "నాన్ని": 1345,
      "పడిన": 1346,
      "ంచేందుకు": 1347,
      "నకు": 1348,
      "ప్పటికీ": 1349,
      "పైగా": 1350,
      "ఉంటాయి": 1351,
      "అల": 1352,
      "స్తో": 1353,
      "దె": 1354,
      "వ్యతిరే": 1355,
      "మాట్లాడుతూ": 1356,
      "వ్యవస్థ": 1357,
      "వర్ష": 1358,
      "అర్థ": 1359,
      "నిల": 1360,
      "బాటు": 1361,
      "అయినా": 1362,
      "ారో": 1363,
      "క్య": 1364,
      "భర్": 1365,
      "శాలు": 1366,
      "ధారణ": 1367,
      "సాయ": 1368,
      "కేసీఆర్": 1369,
      "డ్ర": 1370,
      "వీరి": 1371,
      "టీడీపీ": 1372,
      "తుందని": 1373,
      "చేయాలని": 1374,
      "ంచుకో": 1375,
      "బాధ్య": 1376,
      "ఆందోళ": 1377,
      "విజయ": 1378,
      "దానికి": 1379,
      "ఆరోగ్య": 1380,
      "హార": 1381,
      "ప్రజా": 1382,
      "డబ్బు": 1383,
      "బడు": 1384,
      "మూవీ": 1385,
      "ండగా": 1386,
      "ప్రమాద": 1387,
      "ఎవర": 1388,
      "త్యా": 1389,
      "ంలోకి": 1390,
      "దీనికి": 1391,
      "తిలో": 1392,
      "ఏడాది": 1393,
      "అందుకే": 1394,
      "చరి": 1395,
      "ప్రాజెక్": 1396,
      "ప్రేమ": 1397,
      "పణ": 1398,
      "కింద": 1399,
      "పింది": 1400,
      "సోషల్": 1401,
      "మన్నారు": 1402,
      "గ్రామ": 1403,
      "ంటుంది": 1404,
      "లేద": 1405,
      "కౌ": 1406,
      "జట్టు": 1407,
      "క్రీ": 1408,
      "చేరు": 1409,
      "కారణంగా": 1410,
      "ఆసు": 1411,
      "దర్శి": 1412,
      "మ్మా": 1413,
      "మార": 1414,
      "జగన్": 1415,
      "కరో": 1416,
      "పడింది": 1417,
      "చర్య": 1418,
      "పొంది": 1419,
      "ఏపీ": 1420,
      "మాండ్": 1421,
      "దేవు": 1422,
      "అభిమా": 1423,
      "క్యా": 1424,
      "శక్తి": 1425,
      "ంబ్": 1426,
      "వడం": 1427,
      "డిన": 1428,
      "నాలుగు": 1429,
      "ట్లో": 1430,
      "గిలి": 1431,
      "కోల్": 1432,
      "తిని": 1433,
      "కాలం": 1434,
      "అవసర": 1435,
      "దుపు": 1436,
      "ముగ్": 1437,
      "కంపె": 1438,
      "రారు": 1439,
      "నల్": 1440,
      "సంఘటన": 1441,
      "కంపెనీ": 1442,
      "పోయారు": 1443,
      "దృష్టి": 1444,
      "వివిధ": 1445,
      "రాష్ట్రంలో": 1446,
      "క్త": 1447,
      "ఫా": 1448,
      "చైనా": 1449,
      "వెళ్ల": 1450,
      "చెప్పు": 1451,
      "రాత్రి": 1452,
      "చెల్లి": 1453,
      "ధ్యా": 1454,
      "దాన్ని": 1455,
      "వాటిని": 1456,
      "కోవాలని": 1457,
      "18": 1458,
      "పర్య": 1459,
      "గుర్తు": 1460,
      "దగ్గర": 1461,
      "ీవుడ్": 1462,
      "మవు": 1463,
      "రల్": 1464,
      "కరోనా": 1465,
      "ులకు": 1466,
      "నరేంద్ర": 1467,
      "చుకు": 1468,
      "రస్": 1469,
      "పాఠ": 1470,
      "ప్రి": 1471,
      "పతి": 1472,
      "తరలించారు": 1473,
      "తులను": 1474,
      "కాల్": 1475,
      "చూపి": 1476,
      "వరకూ": 1477,
      "జం": 1478,
      "టక": 1479,
      "ఆస్ప": 1480,
      "తక్కువ": 1481,
      "నిర": 1482,
      "శో": 1483,
      "మహా": 1484,
      "ఫె": 1485,
      "ఆస": 1486,
      "ఉంటే": 1487,
      "ఫోన్": 1488,
      "కష్ట": 1489,
      "ఐదు": 1490,
      "ంట్లో": 1491,
      "అసె": 1492,
      "ఎంపీ": 1493,
      "ంచలేదు": 1494,
      "వరణ": 1495,
      "వెల్లడించారు": 1496,
      "ప్రకారం": 1497,
      "రెండో": 1498,
      "దీనిపై": 1499,
      "పెళ్లి": 1500,
      "వస్తు": 1501,
      "అందులో": 1502,
      "అధికారి": 1503,
      "వేయ": 1504,
      "చేపట్ట": 1505,
      "విజయం": 1506,
      "వాళ్ళ": 1507,
      "స్తాయి": 1508,
      "పాట": 1509,
      "మొదల": 1510,
      "మాట్లాడ": 1511,
      "టికి": 1512,
      "టువంటి": 1513,
      "ండ్రి": 1514,
      "సూచి": 1515,
      "నిర్ణయం": 1516,
      "అసెంబ్": 1517,
      "అంచ": 1518,
      "ౖన": 1519,
      "దేశి": 1520,
      "జ్ఞా": 1521,
      "అసెంబ్లీ": 1522,
      "ఎక్కువగా": 1523,
      "ందీ": 1524,
      "ప్లా": 1525,
      "అమలు": 1526,
      "ంధ్ర": 1527,
      "స్తాన్": 1528,
      "ూరు": 1529,
      "సమావేశ": 1530,
      "తెరకె": 1531,
      "అప్పటి": 1532,
      "రాజ్": 1533,
      "అద్": 1534,
      "ఏమిటి": 1535,
      "స్పష్టం": 1536,
      "స్పంది": 1537,
      "కేసులు": 1538,
      "పక్క": 1539,
      "ప్రవే": 1540,
      "ళ్లీ": 1541,
      "ఎల్": 1542,
      "చ్చే": 1543,
      "నమ్మ": 1544,
      "సినిమ": 1545,
      "కాలంలో": 1546,
      "ప్రకటన": 1547,
      "ఆట": 1548,
      "రువు": 1549,
      "కల్పి": 1550,
      "భయ": 1551,
      "వాల": 1552,
      "ప్రజల": 1553,
      "వినియో": 1554,
      "మల": 1555,
      "చేస్తూ": 1556,
      "లర్": 1557,
      "అమ్మ": 1558,
      "నొ": 1559,
      "దాలు": 1560,
      "చార": 1561,
      "తండ్రి": 1562,
      "్రె": 1563,
      "మళ్లీ": 1564,
      "తప్పు": 1565,
      "కొనసాగు": 1566,
      "కొందరు": 1567,
      "కార్డు": 1568,
      "రోజుల": 1569,
      "దర": 1570,
      "వది": 1571,
      "పది": 1572,
      "సృ": 1573,
      "సంగీ": 1574,
      "ధీ": 1575,
      "చేరుకు": 1576,
      "అడుగు": 1577,
      "వేసి": 1578,
      "గారు": 1579,
      "200": 1580,
      "తులకు": 1581,
      "దారి": 1582,
      "సార్లు": 1583,
      "ఆసుపత్రి": 1584,
      "ప్రయత్ని": 1585,
      "టానికి": 1586,
      "య్యే": 1587,
      "ఇచ్చిన": 1588,
      "హారం": 1589,
      "ఆది": 1590,
      "అంతర్": 1591,
      "నై": 1592,
      "16": 1593,
      "ండె": 1594,
      "విషయాన్ని": 1595,
      "జీవిత": 1596,
      "ఉపయోగి": 1597,
      "యెహో": 1598,
      "ఎన్నో": 1599,
      "పొంద": 1600,
      "యానికి": 1601,
      "హీరోయిన్": 1602,
      "దాడి": 1603,
      "నేతలు": 1604,
      "పవన్": 1605,
      "షూ": 1606,
      "బాధ": 1607,
      "ంగళ": 1608,
      "అలాంటి": 1609,
      "హత్య": 1610,
      "ఫు": 1611,
      "సుప్రీ": 1612,
      "పరిశీ": 1613,
      "రవి": 1614,
      "చెంద": 1615,
      "బౌ": 1616,
      "గాలు": 1617,
      "సంతో": 1618,
      "లింగ్": 1619,
      "గతంలో": 1620,
      "ఇన్": 1621,
      "డిమాండ్": 1622,
      "వాడ": 1623,
      "అసలు": 1624,
      "తిక": 1625,
      "మైంది": 1626,
      "చూసి": 1627,
      "సైతం": 1628,
      "కాం": 1629,
      "గులు": 1630,
      "నంగా": 1631,
      "వాల్": 1632,
      "ఆస్పత్రి": 1633,
      "చివరి": 1634,
      "యల్": 1635,
      "రాలే": 1636,
      "సామా": 1637,
      "కుటుం": 1638,
      "ంచండి": 1639,
      "తేదీ": 1640,
      "24": 1641,
      "అదుపు": 1642,
      "కొను": 1643,
      "సాధారణ": 1644,
      "11": 1645,
      "ట్టే": 1646,
      "సుప్రీం": 1647,
      "బొ": 1648,
      "విధి": 1649,
      "అప్ప": 1650,
      "పరుగులు": 1651,
      "యుడు": 1652,
      "దులు": 1653,
      "ఇటీవల": 1654,
      "అధ్యక్షుడు": 1655,
      "యెహోవా": 1656,
      "తనకు": 1657,
      "మేము": 1658,
      "ముగి": 1659,
      "చదు": 1660,
      "000": 1661,
      "న్యూ": 1662,
      "ఒకటి": 1663,
      "ఆసక్తి": 1664,
      "చరిత్ర": 1665,
      "పడ్డా": 1666,
      "కొద్ది": 1667,
      "పడే": 1668,
      "సమర్": 1669,
      "ముందుకు": 1670,
      "తమైన": 1671,
      "పోలీసులకు": 1672,
      "సేవ": 1673,
      "25": 1674,
      "ండే": 1675,
      "ఆందోళన": 1676,
      "పాటి": 1677,
      "ప్రముఖ": 1678,
      "మను": 1679,
      "పుణ": 1680,
      "వుంది": 1681,
      "17": 1682,
      "వ్యాఖ్య": 1683,
      "జనం": 1684,
      "ఖర్చు": 1685,
      "ద్దా": 1686,
      "డంలో": 1687,
      "ప్టె": 1688,
      "బాధి": 1689,
      "పట్టు": 1690,
      "గాలి": 1691,
      "కారణం": 1692,
      "రక్షణ": 1693,
      "వయ": 1694,
      "పట్ల": 1695,
      "రామ్": 1696,
      "ప్రేక్ష": 1697,
      "స్టి": 1698,
      "ప్పుడూ": 1699,
      "చేరి": 1700,
      "సాం": 1701,
      "చేయడానికి": 1702,
      "సమాధా": 1703,
      "స్థాయిలో": 1704,
      "చేసుకుంది": 1705,
      "మరణి": 1706,
      "అనుకు": 1707,
      "ఉగ్ర": 1708,
      "పొందు": 1709,
      "ఆడ": 1710,
      "స్టర్": 1711,
      "సంగతి": 1712,
      "మీకు": 1713,
      "కన": 1714,
      "గూ": 1715,
      "వివ": 1716,
      "మీడియాలో": 1717,
      "ట్రా": 1718,
      "ఆలోచి": 1719,
      "పిల్లలు": 1720,
      "విలువ": 1721,
      "సిం": 1722,
      "డమే": 1723,
      "కున్నాడు": 1724,
      "ఎందు": 1725,
      "దండ్ర": 1726,
      "ఎదురు": 1727,
      "స్వామి": 1728,
      "క్షే": 1729,
      "శివ": 1730,
      "ులను": 1731,
      "మాలు": 1732,
      "ఆంధ్ర": 1733,
      "సృష్టి": 1734,
      "ద్యా": 1735,
      "రంలో": 1736,
      "సమయం": 1737,
      "సంబంధించి": 1738,
      "పూర్తిగా": 1739,
      "ఎవరు": 1740,
      "థ్": 1741,
      "గుర": 1742,
      "ఆధార": 1743,
      "లుగు": 1744,
      "లిం": 1745,
      "యర్": 1746,
      "న్నది": 1747,
      "రిలీ": 1748,
      "చింది": 1749,
      "నియా": 1750,
      "ంచాయి": 1751,
      "తికి": 1752,
      "ంబర్": 1753,
      "సహాయ": 1754,
      "సభ్యులు": 1755,
      "వేదిక": 1756,
      "త్వంలో": 1757,
      "గొప్ప": 1758,
      "పార": 1759,
      "ప్రాజెక్టు": 1760,
      "పున": 1761,
      "చని": 1762,
      "పౌ": 1763,
      "తల్లిదండ్ర": 1764,
      "సులు": 1765,
      "పరిష్": 1766,
      "ైంది": 1767,
      "ప్రశ్ని": 1768,
      "ాలంటే": 1769,
      "పోరా": 1770,
      "ఎంపి": 1771,
      "శ్రా": 1772,
      "చేస్తుంది": 1773,
      "మద్ద": 1774,
      "వెంక": 1775,
      "దర్శకుడు": 1776,
      "ప్రమాదం": 1777,
      "వివరి": 1778,
      "టమి": 1779,
      "త్మ": 1780,
      "పోర్": 1781,
      "13": 1782,
      "ప్రో": 1783,
      "డవ": 1784,
      "తాలు": 1785,
      "ంత్": 1786,
      "ఆఫ్": 1787,
      "బే": 1788,
      "కేంద్రం": 1789,
      "డైరె": 1790,
      "నుక": 1791,
      "టెస్": 1792,
      "మైన": 1793,
      "ఆనంద": 1794,
      "అమ్మా": 1795,
      "స్నే": 1796,
      "ధర్": 1797,
      "విషయ": 1798,
      "పార్ల": 1799,
      "ఒకే": 1800,
      "అద్భు": 1801,
      "అప్పుడు": 1802,
      "ంటో": 1803,
      "వ్యూ": 1804,
      "అప్పు": 1805,
      "ట్రో": 1806,
      "సము": 1807,
      "క్కడే": 1808,
      "చారు": 1809,
      "కుమారు": 1810,
      "రాజీ": 1811,
      "తీవ్రంగా": 1812,
      "కదా": 1813,
      "చేయాలి": 1814,
      "పాకిస్తాన్": 1815,
      "సీసీ": 1816,
      "ఉత్ప": 1817,
      "చదువు": 1818,
      "విస్త": 1819,
      "చేయి": 1820,
      "వేగ": 1821,
      "ఫ్యా": 1822,
      "మందికి": 1823,
      "ప్రొ": 1824,
      "పిన": 1825,
      "దశ": 1826,
      "త్సర": 1827,
      "నియర్": 1828,
      "దాంతో": 1829,
      "చై": 1830,
      "మహే": 1831,
      "జక": 1832,
      "కోరు": 1833,
      "శేష": 1834,
      "నిర్ణయి": 1835,
      "్రీ": 1836,
      "భం": 1837,
      "సంవత్సర": 1838,
      "కింగ్": 1839,
      "బంగ": 1840,
      "కోవడానికి": 1841,
      "మంత్ర": 1842,
      "ఉపా": 1843,
      "జాగ్ర": 1844,
      "చొ": 1845,
      "దుర్": 1846,
      "మృత": 1847,
      "శరీ": 1848,
      "దిరి": 1849,
      "వాళ్లు": 1850,
      "చేసుకున్న": 1851,
      "శ్రమ": 1852,
      "తెలిపింది": 1853,
      "భవి": 1854,
      "గతి": 1855,
      "పారి": 1856,
      "మన్": 1857,
      "తెలుస్తోంది": 1858,
      "నడు": 1859,
      "సిబ్బంది": 1860,
      "వాస్త": 1861,
      "స్తున్నాడు": 1862,
      "దేశాల": 1863,
      "ఎక్కడ": 1864,
      "త్తా": 1865,
      "ీకరి": 1866,
      "జాగ్రత్త": 1867,
      "తుల్లో": 1868,
      "గ్రీ": 1869,
      "తాము": 1870,
      "సంవత్స": 1871,
      "నియోజక": 1872,
      "ఎత్తు": 1873,
      "కొడు": 1874,
      "గెలి": 1875,
      "చేసుకో": 1876,
      "పరిశీలి": 1877,
      "భూమి": 1878,
      "నన్ను": 1879,
      "అత్యంత": 1880,
      "ముగ్గురు": 1881,
      "అంగ": 1882,
      "ప్రసా": 1883,
      "మార్కెట్": 1884,
      "చిత్రంలో": 1885,
      "ములు": 1886,
      "అర్థం": 1887,
      "ఫై": 1888,
      "ఎదుర్కొ": 1889,
      "నటు": 1890,
      "పాయి": 1891,
      "అనేది": 1892,
      "వున్న": 1893,
      "మీర్": 1894,
      "అంతా": 1895,
      "స్తామని": 1896,
      "వాతా": 1897,
      "ఉగ్రవా": 1898,
      "మద్దతు": 1899,
      "కార్యక్ర": 1900,
      "శాడు": 1901,
      "గింది": 1902,
      "రాజ్య": 1903,
      "దక్షి": 1904,
      "తొల": 1905,
      "ట్టిన": 1906,
      "రిలీజ్": 1907,
      "ఇంటర్": 1908,
      "కేట": 1909,
      "విమర్శ": 1910,
      "మోహ": 1911,
      "ధులు": 1912,
      "ఉండాలి": 1913,
      "అందరూ": 1914,
      "చేస్తున్నా": 1915,
      "ప్రజలకు": 1916,
      "కొండ": 1917,
      "టంతో": 1918,
      "పాలి": 1919,
      "హైకోర్టు": 1920,
      "విద్యా": 1921,
      "మత": 1922,
      "వెన": 1923,
      "ఆరోపణ": 1924,
      "వివరాలు": 1925,
      "షూటింగ్": 1926,
      "సాధ్య": 1927,
      "గాయి": 1928,
      "భర్త": 1929,
      "అభిప్రా": 1930,
      "యుద్ధ": 1931,
      "నాల": 1932,
      "వాళ్ల": 1933,
      "విక్ర": 1934,
      "న్నాను": 1935,
      "నిజా": 1936,
      "జారీ": 1937,
      "పాది": 1938,
      "లక్ష్": 1939,
      "ఖ్యా": 1940,
      "యల": 1941,
      "నీరు": 1942,
      "లక్షలు": 1943,
      "విన": 1944,
      "హార్": 1945,
      "మును": 1946,
      "సన్": 1947,
      "అందుబాటు": 1948,
      "కమిటీ": 1949,
      "స్థానంలో": 1950,
      "స్వీ": 1951,
      "తగా": 1952,
      "నేందుకు": 1953,
      "వ్యవహరి": 1954,
      "ఇచ్చారు": 1955,
      "దెబ్బ": 1956,
      "సుల": 1957,
      "అనుమతి": 1958,
      "షణ": 1959,
      "వుల": 1960,
      "సొంత": 1961,
      "మ్మి": 1962,
      "వంద": 1963,
      "తొలగి": 1964,
      "హక్కు": 1965,
      "ఉద్": 1966,
      "ట్లను": 1967,
      "కట్ట": 1968,
      "తది": 1969,
      "రక్షి": 1970,
      "పడుతుంది": 1971,
      "ముంబ": 1972,
      "ఆదా": 1973,
      "ఆత్మహ": 1974,
      "యూని": 1975,
      "లేఖ": 1976,
      "ఉదయం": 1977,
      "్యాణ్": 1978,
      "అడి": 1979,
      "ఏళ్ల": 1980,
      "లికి": 1981,
      "రూపొంది": 1982,
      "పాలు": 1983,
      "అతడు": 1984,
      "తెలుసుకు": 1985,
      "కేసులో": 1986,
      "మాన్": 1987,
      "ధ్": 1988,
      "మొదలు": 1989,
      "వాన్ని": 1990,
      "ఇంట్లో": 1991,
      "ందం": 1992,
      "మరోవైపు": 1993,
      "ప్రయాణి": 1994,
      "ప్రశ్న": 1995,
      "రియా": 1996,
      "ారెడ్డి": 1997,
      "మిగిలి": 1998,
      "భాగంగా": 1999,
      "వివర": 2000,
      "గ్యా": 2001,
      "ప్తి": 2002,
      "మారింది": 2003,
      "మరోసారి": 2004,
      "ంటీ": 2005,
      "22": 2006,
      "రద్దు": 2007,
      "తీరు": 2008,
      "ప్రాంతాల్లో": 2009,
      "ణంలో": 2010,
      "బాలీవుడ్": 2011,
      "మహారా": 2012,
      "బయటకు": 2013,
      "సాగు": 2014,
      "జిల్లాలో": 2015,
      "మ్యూ": 2016,
      "మీటర్": 2017,
      "కిలో": 2018,
      "తప్పి": 2019,
      "ఆలోచన": 2020,
      "వడంతో": 2021,
      "వెళ్ళి": 2022,
      "గణ": 2023,
      "రాలేదు": 2024,
      "ప్రకటించారు": 2025,
      "నారా": 2026,
      "తీసుకో": 2027,
      "చక్క": 2028,
      "అంతర్జాతీయ": 2029,
      "డాక్టర్": 2030,
      "యాత్ర": 2031,
      "ప్రచారం": 2032,
      "చిత్రాన్ని": 2033,
      "దేశాలు": 2034,
      "స్టేషన్": 2035,
      "్రియ": 2036,
      "స్పష్ట": 2037,
      "పాల్గొన్నారు": 2038,
      "కొనుగో": 2039,
      "లియా": 2040,
      "ఏదో": 2041,
      "శుభ": 2042,
      "దేశీ": 2043,
      "అమి": 2044,
      "అమ్మాయి": 2045,
      "ఏడు": 2046,
      "చేస్తు": 2047,
      "దీన్ని": 2048,
      "చిత్రానికి": 2049,
      "నిరా": 2050,
      "అరెస్టు": 2051,
      "వర్తి": 2052,
      "లుపు": 2053,
      "సంచ": 2054,
      "ఒక్": 2055,
      "బస్సు": 2056,
      "ధిక": 2057,
      "విశ్వ": 2058,
      "అనిపి": 2059,
      "చ్చింది": 2060,
      "భక్": 2061,
      "త్వరలోనే": 2062,
      "జెపి": 2063,
      "కనీ": 2064,
      "వని": 2065,
      "నష్ట": 2066,
      "గీ": 2067,
      "40": 2068,
      "బడిన": 2069,
      "ణు": 2070,
      "పల్లి": 2071,
      "సినిమాలు": 2072,
      "రక": 2073,
      "బ్రి": 2074,
      "పోయాడు": 2075,
      "బృ": 2076,
      "తుడు": 2077,
      "అభ్యర్థ": 2078,
      "ఎంపిక": 2079,
      "నడి": 2080,
      "వైసీపీ": 2081,
      "కార్యాల": 2082,
      "విశేష": 2083,
      "జ్య": 2084,
      "యిన": 2085,
      "టివ్": 2086,
      "పంపి": 2087,
      "సంస్": 2088,
      "మృతదే": 2089,
      "పరు": 2090,
      "కేటాయి": 2091,
      "సేన": 2092,
      "బిజెపి": 2093,
      "కుని": 2094,
      "ల్డ్": 2095,
      "కట్టు": 2096,
      "రోడ్డు": 2097,
      "చ్చిన": 2098,
      "స్ట్రే": 2099,
      "ప్రై": 2100,
      "నానికి": 2101,
      "జరిగే": 2102,
      "నెలకొ": 2103,
      "అనుమా": 2104,
      "చర్చి": 2105,
      "టార్": 2106,
      "సినిమాకు": 2107,
      "నమోద": 2108,
      "మార్పు": 2109,
      "స్టా": 2110,
      "దాడు": 2111,
      "మానికి": 2112,
      "సంత": 2113,
      "దేవి": 2114,
      "లోక్": 2115,
      "అడ": 2116,
      "విజయ్": 2117,
      "రణ్": 2118,
      "సీనియర్": 2119,
      "పోషి": 2120,
      "ఎఫ్": 2121,
      "బహు": 2122,
      "త్యం": 2123,
      "సినిమాను": 2124,
      "చేస్తే": 2125,
      "అరు": 2126,
      "ఫర్": 2127,
      "మండి": 2128,
      "ఆత్మహత్య": 2129,
      "లాండ్": 2130,
      "పోలీస్": 2131,
      "గిరి": 2132,
      "చెయ్య": 2133,
      "వాయి": 2134,
      "తీర్పు": 2135,
      "పత్ర": 2136,
      "పర్యా": 2137,
      "బడ": 2138,
      "చెప్పిన": 2139,
      "ర్ర": 2140,
      "నాగ": 2141,
      "తెరకెక్కి": 2142,
      "ంగి": 2143,
      "గమని": 2144,
      "ఆయనకు": 2145,
      "రగ": 2146,
      "ంటాయి": 2147,
      "న్సి": 2148,
      "ఉత్తర": 2149,
      "కాలి": 2150,
      "గుండె": 2151,
      "చేశ": 2152,
      "మనసు": 2153,
      "పనులు": 2154,
      "స్పె": 2155,
      "23": 2156,
      "ముఖ్యంగా": 2157,
      "కులకు": 2158,
      "అయింది": 2159,
      "ధరలు": 2160,
      "ంలోనే": 2161,
      "ఇవి": 2162,
      "బాలి": 2163,
      "హామీ": 2164,
      "భే": 2165,
      "ణీ": 2166,
      "కన్నా": 2167,
      "ట్లకు": 2168,
      "ఎవరూ": 2169,
      "ఫోటో": 2170,
      "టల్": 2171,
      "లోనూ": 2172,
      "కోరి": 2173,
      "సమావేశంలో": 2174,
      "జరుపు": 2175,
      "సుమారు": 2176,
      "వైఎస్": 2177,
      "రాజ్యా": 2178,
      "ందులు": 2179,
      "నగర్": 2180,
      "కన్": 2181,
      "లేవు": 2182,
      "రోజుల్లో": 2183,
      "పేర్కొంది": 2184,
      "స్థానం": 2185,
      "ఇబ్బ": 2186,
      "స్థాని": 2187,
      "స్థాన్": 2188,
      "ప్రతిపక్ష": 2189,
      "లక్ష్య": 2190,
      "వరుస": 2191,
      "గంటల": 2192,
      "కెట్లు": 2193,
      "కూడదు": 2194,
      "టనా": 2195,
      "ఘా": 2196,
      "....": 2197,
      "ొక": 2198,
      "కులను": 2199,
      "స్కూ": 2200,
      "హాలు": 2201,
      "సూపర్": 2202,
      "పాఠశాల": 2203,
      "ఠా": 2204,
      "విడి": 2205,
      "వరం": 2206,
      "వాలు": 2207,
      "బాగు": 2208,
      "ఆంధ్రప్రదేశ్": 2209,
      "రంగు": 2210,
      "తయారు": 2211,
      "కాదని": 2212,
      "మౌ": 2213,
      "య్యింది": 2214,
      "పోస్టు": 2215,
      "రళ": 2216,
      "ట్రి": 2217,
      "ఆదేశి": 2218,
      "దర్శకత్వంలో": 2219,
      "సమస్యలు": 2220,
      "నాటి": 2221,
      "ఆరు": 2222,
      "బడింది": 2223,
      "శర్మ": 2224,
      "కై": 2225,
      "జిక": 2226,
      "ప్రక్రియ": 2227,
      "ఆర్ఎస్": 2228,
      "పలువు": 2229,
      "భో": 2230,
      "తగిన": 2231,
      "ార్డు": 2232,
      "భవ": 2233,
      "ంచగా": 2234,
      "చ్చరి": 2235,
      "వేడు": 2236,
      "తీసుకున్న": 2237,
      "కొనుగోలు": 2238,
      "హాజర": 2239,
      "పోయాయి": 2240,
      "కొనసాగి": 2241,
      "హాన్ని": 2242,
      "భిన్న": 2243,
      "నేడు": 2244,
      "ఆవి": 2245,
      "నాథ్": 2246,
      "ముల": 2247,
      "కన్న": 2248,
      "బూ": 2249,
      "అతనికి": 2250,
      "100": 2251,
      "ణంగా": 2252,
      "ంద్": 2253,
      "చేసేందుకు": 2254,
      "షో": 2255,
      "గ్గు": 2256,
      "మనిషి": 2257,
      "రికార్డు": 2258,
      "యండి": 2259,
      "లాక్": 2260,
      "స్థలా": 2261,
      "ందరి": 2262,
      "శ్మీర్": 2263,
      "తేలి": 2264,
      "డర్": 2265,
      "ఇంటికి": 2266,
      "శాంతి": 2267,
      "న్లు": 2268,
      "రైల్": 2269,
      "పదవి": 2270,
      "స్థానిక": 2271,
      "హెచ్చరి": 2272,
      "సల": 2273,
      "దర్శకత్వం": 2274,
      "అదుపులోకి": 2275,
      "నామా": 2276,
      "కూతు": 2277,
      "ఇరు": 2278,
      "డ్యూ": 2279,
      "విష్య": 2280,
      "బుల్": 2281,
      "ంచనున్నారు": 2282,
      "కూర్చు": 2283,
      "ఇష్ట": 2284,
      "అన్నాడు": 2285,
      "క్ట్": 2286,
      "భవిష్య": 2287,
      "వారిలో": 2288,
      "పాలన": 2289,
      "శ్చి": 2290,
      "ఆస్పత్రికి": 2291,
      "ప్రసాద్": 2292,
      "హిందీ": 2293,
      "రూప": 2294,
      "ఖాన్": 2295,
      "నాయకులు": 2296,
      "ాలనే": 2297,
      "పోయే": 2298,
      "వల్": 2299,
      "జల": 2300,
      "విశ్వా": 2301,
      "వేరు": 2302,
      "వ్యాఖ్యలు": 2303,
      "ఠి": 2304,
      "బడ్": 2305,
      "ళ్లకు": 2306,
      "కెప్టె": 2307,
      "సంప్ర": 2308,
      "వినిపి": 2309,
      "దరి": 2310,
      "ఓవర్": 2311,
      "త్వరలో": 2312,
      "ప్రతిని": 2313,
      "ప్రాంతంలో": 2314,
      "హర్": 2315,
      "అడ్డు": 2316,
      "శ్రీనివా": 2317,
      "నగర": 2318,
      "తిన": 2319,
      "తకు": 2320,
      "కావడం": 2321,
      "కరమైన": 2322,
      "ఇందుకు": 2323,
      "పురు": 2324,
      "అభ్యర్థి": 2325,
      "వెనుక": 2326,
      "తెలియజే": 2327,
      "రహ": 2328,
      "థా": 2329,
      "గలి": 2330,
      "ఛా": 2331,
      "ంచినట్లు": 2332,
      "మోహన్": 2333,
      "కెప్టెన్": 2334,
      "స్లో": 2335,
      "70": 2336,
      "పిటి": 2337,
      "కోహ్": 2338,
      "ఎన్నికలు": 2339,
      "వచ్చాయి": 2340,
      "విరా": 2341,
      "చేస్తారు": 2342,
      "సీబీ": 2343,
      "టెక్": 2344,
      "ఉంటా": 2345,
      "అరెస్ట్": 2346,
      "ప్రాణ": 2347,
      "పరిమి": 2348,
      "వాళ్ళు": 2349,
      "రాష్ట్రా": 2350,
      "చెబుతున్నారు": 2351,
      "యణ": 2352,
      "పెట్టుకు": 2353,
      "ాలపై": 2354,
      "సాయి": 2355,
      "ారిటీ": 2356,
      "కాలేదు": 2357,
      "నిద్ర": 2358,
      "ఆమెను": 2359,
      "ఏమీ": 2360,
      "సంతోష": 2361,
      "500": 2362,
      "భీ": 2363,
      "యింది": 2364,
      "లోప": 2365,
      "వర్గ": 2366,
      "డైరెక్టర్": 2367,
      "పడుతున్న": 2368,
      "రోజులు": 2369,
      "మహారాష్ట": 2370,
      "వచ్చా": 2371,
      "ఎప్పుడూ": 2372,
      "కూర్": 2373,
      "తార": 2374,
      "రైల్వే": 2375,
      "భాగం": 2376,
      "ంచె": 2377,
      "ఆరోపించారు": 2378,
      "కార్యకర్": 2379,
      "భారతీయ": 2380,
      "హ్మ": 2381,
      "పుడు": 2382,
      "తయ": 2383,
      "మూర్తి": 2384,
      "డ్రై": 2385,
      "శిక్ష": 2386,
      "ఇంగ్": 2387,
      "గ్రహం": 2388,
      "కాస్త": 2389,
      "ఖర్": 2390,
      "అవకాశాలు": 2391,
      "సమాధానం": 2392,
      "21": 2393,
      "వేళ": 2394,
      "అవుతుంది": 2395,
      "లేరు": 2396,
      "నిబం": 2397,
      "వస్తుంది": 2398,
      "ళ్లను": 2399,
      "దేవ": 2400,
      "ప్రభావం": 2401,
      "ప్యా": 2402,
      "విద్యార్": 2403,
      "రేషన్": 2404,
      "యాద": 2405,
      "సభలో": 2406,
      "టరీ": 2407,
      "చేసుకుని": 2408,
      "మల్": 2409,
      "నువ్వు": 2410,
      "జయ": 2411,
      "బాధ్యత": 2412,
      "సిటీ": 2413,
      "యిర్": 2414,
      "సూర్": 2415,
      "హెచ్": 2416,
      "ండీ": 2417,
      "టూ": 2418,
      "మ్య": 2419,
      "లన": 2420,
      "ప్రమాదంలో": 2421,
      "తాన్ని": 2422,
      "గాయాల": 2423,
      "తెలంగాణలో": 2424,
      "ఉంటుందని": 2425,
      "గ్గా": 2426,
      "ఆమో": 2427,
      "క్రా": 2428,
      "మనకు": 2429,
      "ధాని": 2430,
      "ఎన్టీఆర్": 2431,
      "సమీప": 2432,
      "వైరల్": 2433,
      "తీసుకుని": 2434,
      "ల్లె": 2435,
      "లియన్": 2436,
      "ొచ్చు": 2437,
      "రకాల": 2438,
      "కార్యక్రమంలో": 2439,
      "మంగళ": 2440,
      "ళ్ళి": 2441,
      "సంగీతం": 2442,
      "అవార్డు": 2443,
      "గట్టి": 2444,
      "బడ్జె": 2445,
      "గాల": 2446,
      "తీసుకున్నారు": 2447,
      "ంప్": 2448,
      "కృషి": 2449,
      "పుస్త": 2450,
      "పెడు": 2451,
      "అందరికీ": 2452,
      "విద్యు": 2453,
      "సామాజిక": 2454,
      "జాబి": 2455,
      "గవర్": 2456,
      "షె": 2457,
      "సంపాది": 2458,
      "షనల్": 2459,
      "జయ్": 2460,
      "ఆసుపత్రికి": 2461,
      "సోమ": 2462,
      "దరు": 2463,
      "సరైన": 2464,
      "రవ": 2465,
      "అంశం": 2466,
      "అగ్": 2467,
      "విద్యార్థులు": 2468,
      "ంచడంతో": 2469,
      "ఆమెకు": 2470,
      "ఆశ్": 2471,
      "వలన": 2472,
      "య్యాడు": 2473,
      "పలువురు": 2474,
      "రక్త": 2475,
      "చేసుకున్నారు": 2476,
      "పెట్టారు": 2477,
      "పరిచ": 2478,
      "పాత్రలో": 2479,
      "కోరారు": 2480,
      "ద్ధా": 2481,
      "సార": 2482,
      "పిల్లల": 2483,
      "రాయి": 2484,
      "కున్నారు": 2485,
      "ంచవచ్చు": 2486,
      "నీతి": 2487,
      "ఇచ్చ": 2488,
      "క్కలు": 2489,
      "కోహ్లీ": 2490,
      "60": 2491,
      "పండు": 2492,
      "మూడో": 2493,
      "ఘటనలో": 2494,
      "వెలుగు": 2495,
      "ఒత్తి": 2496,
      "ప్రాధా": 2497,
      "వుండ": 2498,
      "న్లో": 2499,
      "విమా": 2500,
      "ఘన": 2501,
      "వ్యాఖ్యా": 2502,
      "వాణి": 2503,
      "గడి": 2504,
      "గతా": 2505,
      "గడ": 2506,
      "బ్రా": 2507,
      "బిల్లు": 2508,
      "సహాయం": 2509,
      "సమావేశం": 2510,
      "మంట": 2511,
      "స్నేహి": 2512,
      "తున్నాడు": 2513,
      "తృ": 2514,
      "సెల్": 2515,
      "తీసుకొ": 2516,
      "అటు": 2517,
      "గాడు": 2518,
      "విమర్శి": 2519,
      "తీసుకె": 2520,
      "ంచారని": 2521,
      "చం": 2522,
      "మార్గ": 2523,
      "సందే": 2524,
      "ఫల": 2525,
      "శాస్త్ర": 2526,
      "రష": 2527,
      "ఉంటారు": 2528,
      "కర్ణా": 2529,
      "పాద": 2530,
      "జీవ": 2531,
      "మానవ": 2532,
      "బోర్": 2533,
      "అంగీకరి": 2534,
      "వార్త": 2535,
      "ట్వి": 2536,
      "క్రికెట్": 2537,
      "భారీగా": 2538,
      "పను": 2539,
      "జిల్ల": 2540,
      "షు": 2541,
      "దాఖ": 2542,
      "ఉండదు": 2543,
      "పద్ధ": 2544,
      "నంది": 2545,
      "ఫే": 2546,
      "టెస్టు": 2547,
      "తారా": 2548,
      "మాకు": 2549,
      "అంచనా": 2550,
      "మహారాష్ట్ర": 2551,
      "వేశారు": 2552,
      "త్మక": 2553,
      "శ్వర": 2554,
      "న్యం": 2555,
      "మైనా": 2556,
      "నష్టం": 2557,
      "ంద్రా": 2558,
      "ట్రై": 2559,
      "పెట్టిన": 2560,
      "క్యూ": 2561,
      "కళా": 2562,
      "పర్యటన": 2563,
      "పోతుంది": 2564,
      "తగ్గ": 2565,
      "పంట": 2566,
      "ంత్రం": 2567,
      "ఆగ": 2568,
      "సాయం": 2569,
      "దీనిని": 2570,
      "టాల": 2571,
      "చేస్తోంది": 2572,
      "మణి": 2573,
      "యులు": 2574,
      "వానికి": 2575,
      "కేరళ": 2576,
      "నంలో": 2577,
      "కర్ణాటక": 2578,
      "చేర": 2579,
      "స్తుందని": 2580,
      "ండర్": 2581,
      "పరిశ్రమ": 2582,
      "మ్స్": 2583,
      "స్టో": 2584,
      "దయ": 2585,
      "తిరు": 2586,
      "వచ్చారు": 2587,
      "కప్": 2588,
      "ంటె": 2589,
      "నెట్": 2590,
      "కార్యదర్శి": 2591,
      "ప్రయత్నం": 2592,
      "ళం": 2593,
      "వేర్": 2594,
      "రైతు": 2595,
      "గాని": 2596,
      "ముందే": 2597,
      "తమిళనాడు": 2598,
      "పరిధి": 2599,
      "చేపట్టారు": 2600,
      "ధో": 2601,
      "ముంబై": 2602,
      "మెగా": 2603,
      "మహిళలు": 2604,
      "జరుగుతున్న": 2605,
      "సలు": 2606,
      "యిల్": 2607,
      "కాక": 2608,
      "స్య": 2609,
      "వయసు": 2610,
      "రానికి": 2611,
      "జనా": 2612,
      "ప్రైవే": 2613,
      "ఒకరు": 2614,
      "చెప్పాడు": 2615,
      "తిరుగు": 2616,
      "రైతులు": 2617,
      "సెల": 2618,
      "కపోతే": 2619,
      "ఉత్పత్తి": 2620,
      "వేగంగా": 2621,
      "సముద్ర": 2622,
      "సత్య": 2623,
      "పరిశో": 2624,
      "దేశానికి": 2625,
      "ళ్లలో": 2626,
      "అందుబాటులో": 2627,
      "కునే": 2628,
      "కళ్యాణ్": 2629,
      "బహి": 2630,
      "సుప్రీంకోర్టు": 2631,
      "అర్జు": 2632,
      "రాలి": 2633,
      "సెస్": 2634,
      "జరా": 2635,
      "బంధు": 2636,
      "రోడ్": 2637,
      "తూనే": 2638,
      "పరిణా": 2639,
      "అమిత్": 2640,
      "డైన": 2641,
      "క్రితం": 2642,
      "స్ర": 2643,
      "కవి": 2644,
      "జీవితం": 2645,
      "గెలు": 2646,
      "ఓడి": 2647,
      "ఉండగా": 2648,
      "పూర్త": 2649,
      "మాటలు": 2650,
      "గది": 2651,
      "తెలియదు": 2652,
      "నాయక": 2653,
      "పేరుతో": 2654,
      "మీటర్ల": 2655,
      "మళ్ళ": 2656,
      "టీఆర్ఎస్": 2657,
      "ారాన్ని": 2658,
      "అంటున్నారు": 2659,
      "ారన్నారు": 2660,
      "వస్తున్న": 2661,
      "సిరీ": 2662,
      "రాజధాని": 2663,
      "పోస్ట్": 2664,
      "అభిమానులు": 2665,
      "క్సి": 2666,
      "పోవ": 2667,
      "క్ల": 2668,
      "ముస్": 2669,
      "నది": 2670,
      "చేపట్టి": 2671,
      "తోపాటు": 2672,
      "ఉండి": 2673,
      "మెరు": 2674,
      "తానికి": 2675,
      "నారాయణ": 2676,
      "తేడా": 2677,
      "స్వాధీ": 2678,
      "ఏర్పా": 2679,
      "తమకు": 2680,
      "ఇద్దరి": 2681,
      "ఘటనపై": 2682,
      "ప్రవేశ": 2683,
      "త్రు": 2684,
      "ఆధారంగా": 2685,
      "విమర్శలు": 2686,
      "కాన్ని": 2687,
      "తాడు": 2688,
      "దానిని": 2689,
      "కొట్ట": 2690,
      "మిగతా": 2691,
      "సంస్థలు": 2692,
      "నిరసన": 2693,
      "ప్రాణాలు": 2694,
      "రాజీనామా": 2695,
      "తని": 2696,
      "సారిగా": 2697,
      "వ్యాఖ్యాని": 2698,
      "మార్చి": 2699,
      "మరొక": 2700,
      "అగ్ని": 2701,
      "ంచుకున్న": 2702,
      "రావడం": 2703,
      "ఆప": 2704,
      "పశ్చి": 2705,
      "బ్యాంకు": 2706,
      "అధినేత": 2707,
      "కొట్టి": 2708,
      "కెమె": 2709,
      "గ్యం": 2710,
      "రాష్ట్రాల్లో": 2711,
      "ఎస్పీ": 2712,
      "పడుతున్నారు": 2713,
      "పురం": 2714,
      "ఉన్నట్లు": 2715,
      "వసూ": 2716,
      "ఆస్ట్రే": 2717,
      "దిగు": 2718,
      "అతడి": 2719,
      "చెప్పే": 2720,
      "ఒప్ప": 2721,
      "వాని": 2722,
      "ఆశ": 2723,
      "సేపు": 2724,
      "చూపు": 2725,
      "చెప్పింది": 2726,
      "మళ్ళీ": 2727,
      "ందర": 2728,
      "వైరస్": 2729,
      "స్ట్రీ": 2730,
      "గవర్నర్": 2731,
      "ప్లే": 2732,
      "ంటున్నా": 2733,
      "పరుగుల": 2734,
      "అండ్": 2735,
      "నలుగురు": 2736,
      "తల్లిదండ్రులు": 2737,
      "వస్తే": 2738,
      "విచారి": 2739,
      "పైన": 2740,
      "గారి": 2741,
      "అదన": 2742,
      "ారాలు": 2743,
      "మహిళా": 2744,
      "శుక్ర": 2745,
      "పన": 2746,
      "ఎటువంటి": 2747,
      "స్తోందని": 2748,
      "స్తాడు": 2749,
      "పిక్": 2750,
      "తీసి": 2751,
      "మహేష్": 2752,
      "కనీసం": 2753,
      "పేట": 2754,
      "నేర్చు": 2755,
      "మిగిలిన": 2756,
      "పాక్": 2757,
      "పెరి": 2758,
      "సంబంధం": 2759,
      "ఆశి": 2760,
      "గానీ": 2761,
      "రాజ్యాంగ": 2762,
      "తనం": 2763,
      "హే": 2764,
      "విరు": 2765,
      "అప్": 2766,
      "కూర": 2767,
      "పైకి": 2768,
      "ఎవ": 2769,
      "వేలు": 2770,
      "నిజం": 2771,
      "ప్రకటించింది": 2772,
      "కృత": 2773,
      "పార్లమె": 2774,
      "నిజంగా": 2775,
      "కఠి": 2776,
      "శాసన": 2777,
      "లేదన్నారు": 2778,
      "99": 2779,
      "పటి": 2780,
      "వ్యాధి": 2781,
      "తరులు": 2782,
      "ఎందుకంటే": 2783,
      "వ్యతిరేకంగా": 2784,
      "సాహ": 2785,
      "అందించారు": 2786,
      "ంచనున్న": 2787,
      "మాన్ని": 2788,
      "ఆహ్": 2789,
      "నాయుడు": 2790,
      "గుజరా": 2791,
      "చుట్ట": 2792,
      "చది": 2793,
      "నియమి": 2794,
      "బడ్జెట్": 2795,
      "స్థలానికి": 2796,
      "టిల్": 2797,
      "ారట": 2798,
      "నటించిన": 2799,
      "దైనా": 2800,
      "కుటుంబా": 2801,
      "కార్మి": 2802,
      "హరణ": 2803,
      "ఎప్పుడు": 2804,
      "వీరు": 2805,
      "బద్ధ": 2806,
      "ఆహార": 2807,
      "ల్ప": 2808,
      "స్తున్నట్లు": 2809,
      "హిట్": 2810,
      "వ్యవసాయ": 2811,
      "్యు": 2812,
      "నిమిత్తం": 2813,
      "ండియా": 2814,
      "ప్రేమి": 2815,
      "గుల": 2816,
      "జవా": 2817,
      "సాయంత్రం": 2818,
      "ధాలు": 2819,
      "ఆస్ట్రేలియా": 2820,
      "బట్ట": 2821,
      "తెచ్చు": 2822,
      "చెన్న": 2823,
      "రోహి": 2824,
      "రుగా": 2825,
      "దిశ": 2826,
      "స్వాధీనం": 2827,
      "పాన్": 2828,
      "నిపుణ": 2829,
      "రాజే": 2830,
      "చీఫ్": 2831,
      "ంట్లు": 2832,
      "అన్నీ": 2833,
      "నిర్వ": 2834,
      "అందువల్ల": 2835,
      "ప్రతీ": 2836,
      "రాయ": 2837,
      "పూర్వ": 2838,
      "హద్దు": 2839,
      "జైలు": 2840,
      "పొడి": 2841,
      "బరి": 2842,
      "ద్రా": 2843,
      "పార్టీలు": 2844,
      "వీర": 2845,
      "మంత్రులు": 2846,
      "కురి": 2847,
      "లైన": 2848,
      "కలా": 2849,
      "టీవీ": 2850,
      "నిమిష": 2851,
      "ైర్": 2852,
      "ఇప్పటికీ": 2853,
      "ద్దాం": 2854,
      "దిగా": 2855,
      "వలసిన": 2856,
      "అబ్": 2857,
      "క్షలు": 2858,
      "ప్రకా": 2859,
      "విమాన": 2860,
      "ఇప్పటివరకు": 2861,
      "ఫ్రి": 2862,
      "ందూ": 2863,
      "క్లి": 2864,
      "ఫార్": 2865,
      "భావ": 2866,
      "ాలన్నారు": 2867,
      "ముని": 2868,
      "కాన్": 2869,
      "శాన్ని": 2870,
      "బిడ్డ": 2871,
      "కోరుకు": 2872,
      "తాలో": 2873,
      "శని": 2874,
      "ప్రభుత్వానికి": 2875,
      "పశ్చిమ": 2876,
      "విదేశీ": 2877,
      "వరూ": 2878,
      "పట్టుకు": 2879,
      "కూల": 2880,
      "నట్లు": 2881,
      "పన్ను": 2882,
      "చేర్": 2883,
      "ఆఫీ": 2884,
      "శుభ్ర": 2885,
      "పరిస్థితులు": 2886,
      "రోజూ": 2887,
      "ారావు": 2888,
      "ందన": 2889,
      "మందు": 2890,
      "ఒక్కో": 2891,
      "అర": 2892,
      "దర్శన": 2893,
      "ల్లం": 2894,
      "ప్రారంభం": 2895,
      "పార్టీకి": 2896,
      "ళీ": 2897,
      "కొడుకు": 2898,
      "నీకు": 2899,
      "ఢిల్లీలో": 2900,
      "ఎక్క": 2901,
      "తనను": 2902,
      "నిర్వహించారు": 2903,
      "దేశంలోని": 2904,
      "భద్రతా": 2905,
      "కోట్లకు": 2906,
      "చట్టం": 2907,
      "అప్పగి": 2908,
      "ఇష్టం": 2909,
      "చౌ": 2910,
      "సారు": 2911,
      "సూచించారు": 2912,
      "మిన": 2913,
      "సోమవారం": 2914,
      "విద్యుత్": 2915,
      "షన్స్": 2916,
      "కారణాలు": 2917,
      "క్రమంలో": 2918,
      "ఆరోపణలు": 2919,
      "శుక్రవారం": 2920,
      "ాలన్న": 2921,
      "చేయలేదు": 2922,
      "అయ్యారు": 2923,
      "వంతంగా": 2924,
      "ఉన్నాడు": 2925,
      "హీరోగా": 2926,
      "ఆత్మ": 2927,
      "ఇవా": 2928,
      "అభిమాను": 2929,
      "వీటిని": 2930,
      "కూడిన": 2931,
      "నివ": 2932,
      "ణానికి": 2933,
      "ఎక్స్": 2934,
      "సురే": 2935,
      "కొత్తగా": 2936,
      "రష్యా": 2937,
      "వివరించారు": 2938,
      "కని": 2939,
      "ఉదా": 2940,
      "ప్రజాస్వా": 2941,
      "మండిపడ్డారు": 2942,
      "త్రా": 2943,
      "మున": 2944,
      "ంచటం": 2945,
      "ఇబ్బంది": 2946,
      "గుజరాత్": 2947,
      "చేసినట్లు": 2948,
      "రత్": 2949,
      "ద్దీ": 2950,
      "ఇండ": 2951,
      "సౌకర్": 2952,
      "ఎయిర్": 2953,
      "భయం": 2954,
      "మనో": 2955,
      "ట్వీ": 2956,
      "ముస్లిం": 2957,
      "చాలామంది": 2958,
      "మద్య": 2959,
      "క్రమంగా": 2960,
      "కలె": 2961,
      "బరువు": 2962,
      "కారులు": 2963,
      "వాయిదా": 2964,
      "చూడాలి": 2965,
      "క్రై": 2966,
      "్యాన్ని": 2967,
      "ట్టుగా": 2968,
      "సన్ని": 2969,
      "28": 2970,
      "పిటిషన్": 2971,
      "సాను": 2972,
      "మంచిది": 2973,
      "విద్యార్థి": 2974,
      "పెరిగింది": 2975,
      "పెట్టే": 2976,
      "అత్యా": 2977,
      "ఆటో": 2978,
      "నింగ్": 2979,
      "శిక్షణ": 2980,
      "న్యాయం": 2981,
      "ఇచ్చే": 2982,
      "విడ్": 2983,
      "రాణి": 2984,
      "శంకర్": 2985,
      "సినీ": 2986,
      "కాద": 2987,
      "మూల": 2988,
      "దొంగ": 2989,
      "వికెట్లు": 2990,
      "జాబ్": 2991,
      "హాజరు": 2992,
      "ందనే": 2993,
      "రాష్ట్రాల": 2994,
      "వంట": 2995,
      "క్రె": 2996,
      "రొ": 2997,
      "హృ": 2998,
      "కుడి": 2999,
      "పూజ": 3000,
      "వాది": 3001,
      "ంచ్": 3002,
      "కలిపి": 3003,
      "టీమి": 3004,
      "ప్రశ్నించారు": 3005,
      "ంచుకుని": 3006,
      "కుమారుడు": 3007,
      "ఇన్ని": 3008,
      "నిర్మాత": 3009,
      "బంగారం": 3010,
      "రూపాయల": 3011,
      "పెట్రో": 3012,
      "నాలను": 3013,
      "వర్షాలు": 3014,
      "మంగళవారం": 3015,
      "ఆకర్": 3016,
      "మార్పులు": 3017,
      "కావడంతో": 3018,
      "సాంకే": 3019,
      "భవిష్యత్తు": 3020,
      "తగ్గు": 3021,
      "అక్": 3022,
      "టన్": 3023,
      "మేం": 3024,
      "ట్రంప్": 3025,
      "ఖాస్తు": 3026,
      "టీమిండియా": 3027,
      "దంతా": 3028,
      "భాగా": 3029,
      "నిజానికి": 3030,
      "పాత": 3031,
      "కుటుంబం": 3032,
      "గడు": 3033,
      "ధర్మ": 3034,
      "వేత్త": 3035,
      "వర్గం": 3036,
      "ఇబ్బందులు": 3037,
      "ఎత్తున": 3038,
      "సాధించిన": 3039,
      "ప్రస": 3040,
      "అయ్యింది": 3041,
      "ప్రణా": 3042,
      "రాష్ట్రం": 3043,
      "బీఆర్ఎస్": 3044,
      "షేర్": 3045,
      "ముఖ్యమైన": 3046,
      "ట్టర్": 3047,
      "లాది": 3048,
      "దూరంగా": 3049,
      "దరఖాస్తు": 3050,
      "మాని": 3051,
      "సిక": 3052,
      "దూరం": 3053,
      "కరు": 3054,
      "జీవితంలో": 3055,
      "వేసుకు": 3056,
      "చూసిన": 3057,
      "సియా": 3058,
      "బుధ": 3059,
      "హిం": 3060,
      "కుం": 3061,
      "విభ": 3062,
      "పాజి": 3063,
      "ఓటు": 3064,
      "వంత్": 3065,
      "వికెట్": 3066,
      "నిర్మాణ": 3067,
      "దేవుని": 3068,
      "కరించారు": 3069,
      "ప్రణాళి": 3070,
      "ఇచ్చింది": 3071,
      "ర్మన్": 3072,
      "నేషన్": 3073,
      "ఓపె": 3074,
      "మణ": 3075,
      "రియ": 3076,
      "అంతకు": 3077,
      "కథా": 3078,
      "అల్లు": 3079,
      "వాస": 3080,
      "ఒకరి": 3081,
      "తోనే": 3082,
      "గురువారం": 3083,
      "రచ": 3084,
      "భాషల్లో": 3085,
      "చ్ఛ": 3086,
      "80": 3087,
      "గృ": 3088,
      "ప్రస్తుత": 3089,
      "వైద్యులు": 3090,
      "సంక్షే": 3091,
      "దైన": 3092,
      "ఫోర్": 3093,
      "విశాఖ": 3094,
      "కడు": 3095,
      "న్సీ": 3096,
      "ఆశ్ర": 3097,
      "సామర్": 3098,
      "పొందిన": 3099,
      "ఫొ": 3100,
      "కరంగా": 3101,
      "ందన్న": 3102,
      "ంటాడు": 3103,
      "గంటలకు": 3104,
      "వాద": 3105,
      "దారులు": 3106,
      "సిద్ధం": 3107,
      "హోం": 3108,
      "మరీ": 3109,
      "హన": 3110,
      "తోందని": 3111,
      "పుష్": 3112,
      "స్తున్నారని": 3113,
      "జరుగుతుంది": 3114,
      "విధానం": 3115,
      "కోలు": 3116,
      "దేశవ్యాప్తంగా": 3117,
      "ఆదివారం": 3118,
      "నర": 3119,
      "పదార్థ": 3120,
      "ఆడి": 3121,
      "రిజర్": 3122,
      "సాక్ష": 3123,
      "చ్చితంగా": 3124,
      "ప్రదర్శి": 3125,
      "నేని": 3126,
      "ప్పున": 3127,
      "దృశ": 3128,
      "బ్యాంక్": 3129,
      "ప్రస్తా": 3130,
      "్రెడ్డి": 3131,
      "కేషన్": 3132,
      "ఇద్దరూ": 3133,
      "చేయండి": 3134,
      "ాలనుకు": 3135,
      "శ్రే": 3136,
      "చర్చలు": 3137,
      "సంఖ్యలో": 3138,
      "వేధి": 3139,
      "నటుడు": 3140,
      "26": 3141,
      "మస్": 3142,
      "నాటికి": 3143,
      "సంవత్సరం": 3144,
      "ఆయా": 3145,
      "రైతుల": 3146,
      "జార్": 3147,
      "శ్వర్": 3148,
      "యాదవ్": 3149,
      "చరణ్": 3150,
      "దక్కి": 3151,
      "వర్గాలు": 3152,
      "చెప్పుకొ": 3153,
      "చేత": 3154,
      "చాడు": 3155,
      "పేద": 3156,
      "ఫలితాలు": 3157,
      "నవ్వు": 3158,
      "దళ": 3159,
      "చిరు": 3160,
      "వ్యాపార": 3161,
      "దక్షిణ": 3162,
      "ఉదాహరణ": 3163,
      "నిరో": 3164,
      "ంచుకోవ": 3165,
      "బోయే": 3166,
      "గుర్తింపు": 3167,
      "గ్రహి": 3168,
      "పెట్టింది": 3169,
      "దేశాల్లో": 3170,
      "స్పీ": 3171,
      "సంవత్సరాల": 3172,
      "వేసింది": 3173,
      "ఏదైనా": 3174,
      "స్తారని": 3175,
      "చెన్నై": 3176,
      "పోలీసుల": 3177,
      "శనివారం": 3178,
      "నొప్పి": 3179,
      "బుధవారం": 3180,
      "ఆరా": 3181,
      "ఫైన": 3182,
      "నిందితు": 3183,
      "ప్రశా": 3184,
      "వరద": 3185,
      "దృష్ట": 3186,
      "నిషే": 3187,
      "చోట్ల": 3188,
      "స్థానికులు": 3189,
      "ప్రారంభించారు": 3190,
      "ధరి": 3191,
      "దీర్": 3192,
      "అంశాల": 3193,
      "తెల్ల": 3194,
      "ాలూ": 3195,
      "ఈసారి": 3196,
      "నీయ": 3197,
      "డిసె": 3198,
      "రూపాయలు": 3199,
      "నెలల": 3200,
      "ఫొటో": 3201,
      "వలె": 3202,
      "చూస్తే": 3203,
      "రాం": 3204,
      "అందుకున్న": 3205,
      "అధికారంలోకి": 3206,
      "లంక": 3207,
      "ంచినా": 3208,
      "ంచుకున్నారు": 3209,
      "హణ": 3210,
      "పోయినా": 3211,
      "అంశ": 3212,
      "సిరీస్": 3213,
      "గోదా": 3214,
      "గొడవ": 3215,
      "రైలు": 3216,
      "ఇండియన్": 3217,
      "దాకా": 3218,
      "హ్యా": 3219,
      "విశేషం": 3220,
      "ఆయు": 3221,
      "ప్ల": 3222,
      "నున్నాయి": 3223,
      "భగ": 3224,
      "ర్పు": 3225,
      "ప్రాథ": 3226,
      "అందజే": 3227,
      "కనిపించ": 3228,
      "భద్రత": 3229,
      "సీబీఐ": 3230,
      "నుంచే": 3231,
      "నగదు": 3232,
      "సాంకేతిక": 3233,
      "సహజ": 3234,
      "హిందూ": 3235,
      "మధు": 3236,
      "వంతు": 3237,
      "క్కా": 3238,
      "వాతావర": 3239,
      "ఎనిమి": 3240,
      "చార్": 3241,
      "షీ": 3242,
      "కాశ్మీర్": 3243,
      "బెంగా": 3244,
      "నిరు": 3245,
      "లాడు": 3246,
      "పురుష": 3247,
      "రేపు": 3248,
      "మాయ": 3249,
      "నీవు": 3250,
      "ఆయ": 3251,
      "చేశారని": 3252,
      "మధ్యా": 3253,
      "ృతి": 3254,
      "లైన్": 3255,
      "చొప్పున": 3256,
      "ఇటీవ": 3257,
      "వేసిన": 3258,
      "పెళ్ళి": 3259,
      "సరిహద్దు": 3260,
      "నిబంధన": 3261,
      "దాఖలు": 3262,
      "సర్వ": 3263,
      "సాధారణంగా": 3264,
      "లోక్సభ": 3265,
      "ప్రశం": 3266,
      "నిర్మాణం": 3267,
      "27": 3268,
      "బాయి": 3269,
      "అలవా": 3270,
      "మ్రా": 3271,
      "ాల్సిందే": 3272,
      "ఆదాయం": 3273,
      "నాయకుడు": 3274,
      "..?": 3275,
      "ఆస్": 3276,
      "పదే": 3277,
      "సాధించింది": 3278,
      "ఇవాళ": 3279,
      "ంగు": 3280,
      "వేరే": 3281,
      "బెంగళ": 3282,
      "మెరుగు": 3283,
      "ముందుగా": 3284,
      "రైతులకు": 3285,
      "డాల": 3286,
      "అడ్": 3287,
      "టకు": 3288,
      "వర్షం": 3289,
      "తప్పని": 3290,
      "కాంత్": 3291,
      "వ్యవహార": 3292,
      "విషయాలు": 3293,
      "కొంతమంది": 3294,
      "మించి": 3295,
      "వన్నీ": 3296,
      "వార్తలు": 3297,
      "రింగ్": 3298,
      "సంభవి": 3299,
      "వాడి": 3300,
      "ప్రాధాన్య": 3301,
      "వసర": 3302,
      "ఇదిలా": 3303,
      "పెద్దగా": 3304,
      "ప్యూ": 3305,
      "జనవరి": 3306,
      "వర్గాల": 3307,
      "ప్లాన్": 3308,
      "పండి": 3309,
      "ంతం": 3310,
      "వాతావరణ": 3311,
      "నివేదిక": 3312,
      "పట్": 3313,
      "పరిష్కరి": 3314,
      "ఆరోగ్యం": 3315,
      "పథకం": 3316,
      "డిగ్రీ": 3317,
      "జనసేన": 3318,
      "ఉన్నాయని": 3319,
      "పోతున్న": 3320,
      "ఉండేది": 3321,
      "ఆక": 3322,
      "ఐపీ": 3323,
      "నల్ల": 3324,
      "దాయ": 3325,
      "ఊహి": 3326,
      "ప్రజలను": 3327,
      "సినిమాకి": 3328,
      "ఎప్పటి": 3329,
      "అర్జున్": 3330,
      "అక్ష": 3331,
      "చేరింది": 3332,
      "ఆటగా": 3333,
      "ద్దరూ": 3334,
      "ఉండాలని": 3335,
      "థియే": 3336,
      "బలి": 3337,
      "సంతా": 3338,
      "స్తూనే": 3339,
      "బోర్డు": 3340,
      "బాలిక": 3341,
      "అవినీతి": 3342,
      "ంపులు": 3343,
      "విస్తరి": 3344,
      "అఖ": 3345,
      "ణాన్ని": 3346,
      "ట్విట్టర్": 3347,
      "ఆన్": 3348,
      "అయ్యాయి": 3349,
      "అవసరమైన": 3350,
      "ణ్య": 3351,
      "అభిప్రాయ": 3352,
      "అక్క": 3353,
      "జనాలు": 3354,
      "దీర్ఘ": 3355,
      "కుంది": 3356,
      "స్త్రీ": 3357,
      "రాన్ని": 3358,
      "అనుసరి": 3359,
      "ఏర్పాట్లు": 3360,
      "స్తాం": 3361,
      "ఘో": 3362,
      "చల్ల": 3363,
      "శై": 3364,
      "వేయి": 3365,
      "పరంగా": 3366,
      "కలిగిన": 3367,
      "అక్కడే": 3368,
      "చెందారు": 3369,
      "వేడుక": 3370,
      "రాజా": 3371,
      "అవగా": 3372,
      "పార్టీలో": 3373,
      "పెరగ": 3374,
      "అధికారిక": 3375,
      "వత": 3376,
      "టర్లు": 3377,
      "35": 3378,
      "తాబ్": 3379,
      "సాగి": 3380,
      "రుణ": 3381,
      "పార్లమెంట్": 3382,
      "పవర్": 3383,
      "తీసుకోవ": 3384,
      "చుట్టూ": 3385,
      "ీయ": 3386,
      "నిలు": 3387,
      "డండి": 3388,
      "దుల": 3389,
      "నాన్న": 3390,
      "యుల": 3391,
      "ందట": 3392,
      "హత": 3393,
      "చేతిలో": 3394,
      "పడ్డాడు": 3395,
      "రాల": 3396,
      "ఘటనా": 3397,
      "ప్రచార": 3398,
      "బడ్డా": 3399,
      "జంట": 3400,
      "జస్టి": 3401,
      "లక్ష్యం": 3402,
      "దిగ": 3403,
      "వదిలి": 3404,
      "ంటోంది": 3405,
      "విమర్శించారు": 3406,
      "తీసుకోవాలని": 3407,
      "ఉచి": 3408,
      "టైటిల్": 3409,
      "పరీక్షలు": 3410,
      "జనీ": 3411,
      "ధైర్": 3412,
      "పుట్టిన": 3413,
      "మాల": 3414,
      "మాస": 3415,
      "ప్రభుత్వాన్ని": 3416,
      "ఆహారం": 3417,
      "మంతా": 3418,
      "మంగా": 3419,
      "పెంచు": 3420,
      "నాని": 3421,
      "వినియోగి": 3422,
      "కానుంది": 3423,
      "సంజయ్": 3424,
      "ప్రత్యేకంగా": 3425,
      "పార్లమెంటు": 3426,
      "షనర్": 3427,
      "పక": 3428,
      "కాపా": 3429,
      "పార్టీల": 3430,
      "లిక": 3431,
      "నాట": 3432,
      "నూనె": 3433,
      "త్వరగా": 3434,
      "మనీ": 3435,
      "భారతీ": 3436,
      "ఫ్ట్": 3437,
      "సైని": 3438,
      "వుగా": 3439,
      "చేస్తామని": 3440,
      "నేషనల్": 3441,
      "ఆగ్రహం": 3442,
      "సాహి": 3443,
      "గమన": 3444,
      "నూతన": 3445,
      "తదితరులు": 3446,
      "వులను": 3447,
      "గోదావరి": 3448,
      "పట్టణ": 3449,
      "సల్": 3450,
      "యన్స్": 3451,
      "ఇక్కడి": 3452,
      "దురు": 3453,
      "ఇవ్వాలని": 3454,
      "వ్యతిరేక": 3455,
      "న్నె": 3456,
      "జరుగుతోంది": 3457,
      "సబ్": 3458,
      "హాయి": 3459,
      "ష్య": 3460,
      "సరిగా": 3461,
      "రోహిత్": 3462,
      "90": 3463,
      "టీసీ": 3464,
      "కుమార్తె": 3465,
      "సిద్ధంగా": 3466,
      "ంచాల్సి": 3467,
      "గ్రూ": 3468,
      "కార్యక్రమాలు": 3469,
      "స్పందన": 3470,
      "నిర్వహణ": 3471,
      "ంట్ర": 3472,
      "యుద్ధం": 3473,
      "పోవడం": 3474,
      "అగ్ర": 3475,
      "వ్యక్తిగత": 3476,
      "అంతేకాకుండా": 3477,
      "స్వాత": 3478,
      "ఒత్తిడి": 3479,
      "కాయ": 3480,
      "కగా": 3481,
      "తలె": 3482,
      "మాస్": 3483,
      "వస": 3484,
      "అవకాశ": 3485,
      "రీర్": 3486,
      "ట్వీట్": 3487,
      "డ్రా": 3488,
      "నమ్మకం": 3489,
      "బ్యాటింగ్": 3490,
      "రుచి": 3491,
      "అప్ర": 3492,
      "భావం": 3493,
      "గాయపడిన": 3494,
      "విడ": 3495,
      "కోవచ్చు": 3496,
      "నెలలో": 3497,
      "చనలు": 3498,
      "మెంట్స్": 3499,
      "ద్దరి": 3500,
      "చేరుకుని": 3501,
      "డాన్ని": 3502,
      "మవుతుంది": 3503,
      "దిన": 3504,
      "కెరీర్": 3505,
      "గ్రహ": 3506,
      "ంచాల్సిన": 3507,
      "స్తులు": 3508,
      "మొత్త": 3509,
      "మ్యూజి": 3510,
      "కోలేదు": 3511,
      "వినియోగ": 3512,
      "అన్నది": 3513,
      "ల్చి": 3514,
      "ంజ": 3515,
      "సామర్థ": 3516,
      "రాము": 3517,
      "దాటి": 3518,
      "సూర్య": 3519,
      "డ్స్": 3520,
      "టెడ్": 3521,
      "పెట్టుబడు": 3522,
      "మధ్యాహ్": 3523,
      "బారి": 3524,
      "చూసే": 3525,
      "వెనక్కి": 3526,
      "దక్షిణా": 3527,
      "నటిస్తున్న": 3528,
      "ంచీ": 3529,
      "డబ్బులు": 3530,
      "తేదీన": 3531,
      "వారీ": 3532,
      "నేటి": 3533,
      "తరగతి": 3534,
      "రంగంలో": 3535,
      "పిల్లలకు": 3536,
      "చేరుకున్న": 3537,
      "నిధులు": 3538,
      "భరి": 3539,
      "కూతురు": 3540,
      "క్లా": 3541,
      "ప్పుడే": 3542,
      "డ్రైవర్": 3543,
      "శ్రీనివాస్": 3544,
      "సీజన్": 3545,
      "ఎంటర్": 3546,
      "బహిరంగ": 3547,
      "మ్మడి": 3548,
      "గాయపడ్డారు": 3549,
      "కాలేజీ": 3550,
      "సమాజ": 3551,
      "ఖాళీ": 3552,
      "జస్టిస్": 3553,
      "మిత్ర": 3554,
      "భక్తులు": 3555,
      "75": 3556,
      "కార్యక్రమం": 3557,
      "ఉప్పు": 3558,
      "ళు": 3559,
      "పంజాబ్": 3560,
      "ంచుకుంది": 3561,
      "తెలుగులో": 3562,
      "మండల": 3563,
      "నికే": 3564,
      "ఉపయోగ": 3565,
      "త్సవ": 3566,
      "భాగంలో": 3567,
      "ప్రధానమంత్రి": 3568,
      "2014": 3569,
      "ఫలిత": 3570,
      "వడ్": 3571,
      "బ్లాక్": 3572,
      "ఉద్యోగం": 3573,
      "తెలిసింది": 3574,
      "వరుసగా": 3575,
      "సాధ్యం": 3576,
      "వుంటుంది": 3577,
      "వెళ్లే": 3578,
      "పట్టించుకో": 3579,
      "ఫూ": 3580,
      "లోక": 3581,
      "సంస్కృ": 3582,
      "దాడులు": 3583,
      "ఆవే": 3584,
      "ంజ్": 3585,
      "ంట్ల": 3586,
      "కావాలి": 3587,
      "స్పి": 3588,
      "నిన్న": 3589,
      "ఆడు": 3590,
      "ాలె": 3591,
      "రేవంత్": 3592,
      "జనాభా": 3593,
      "ప్రయత్నాలు": 3594,
      "నవ్": 3595,
      "మార్గం": 3596,
      "వివాహం": 3597,
      "భేటీ": 3598,
      "కఠిన": 3599,
      "సినిమాల్లో": 3600,
      "ఉపాధ్యా": 3601,
      "పండుగ": 3602,
      "ఫ్రికా": 3603,
      "పిలుపు": 3604,
      "రేటు": 3605,
      "ఉండటం": 3606,
      "పక్కన": 3607,
      "ఏక": 3608,
      "మగ": 3609,
      "రవా": 3610,
      "దిగిన": 3611,
      "ప్రొడ": 3612,
      "ఫస్ట్": 3613,
      "బెంగళూరు": 3614,
      "45": 3615,
      "పద్": 3616,
      "లవ": 3617,
      "అవగాహన": 3618,
      "హాజరయ్యారు": 3619,
      "పోతే": 3620,
      "వీలు": 3621,
      "అల్ల": 3622,
      "ట్రైలర్": 3623,
      "ఫ్రె": 3624,
      "సర్వీ": 3625,
      "కండి": 3626,
      "ప్రవేశి": 3627,
      "గాను": 3628,
      "ఏంటి": 3629,
      "పల్": 3630,
      "సరే": 3631,
      "పోర్ట్": 3632,
      "దార్": 3633,
      "రని": 3634,
      "కరె": 3635,
      "ఐటీ": 3636,
      "ఉన్నత": 3637,
      "పరిచయం": 3638,
      "కడ": 3639,
      "ధుల": 3640,
      "పత": 3641,
      "మద్యం": 3642,
      "చారి": 3643,
      "మరిన్ని": 3644,
      "స్వయంగా": 3645,
      "విస్": 3646,
      "లక్షణాలు": 3647,
      "మరణం": 3648,
      "ంగ్స్": 3649,
      "డితే": 3650,
      "లుక్": 3651,
      "ఏది": 3652,
      "అధ్యక్షు": 3653,
      "మహిళల": 3654,
      "మార్చ": 3655,
      "ంచడంలో": 3656,
      "ముఖం": 3657,
      "నామి": 3658,
      "టాక్": 3659,
      "మొదట": 3660,
      "ంపి": 3661,
      "స్యం": 3662,
      "సంబంధ": 3663,
      "నటించారు": 3664,
      "పురా": 3665,
      "కలుగు": 3666,
      "అప్పుడే": 3667,
      "మృతదేహాన్ని": 3668,
      "నాల్": 3669,
      "కపూర్": 3670,
      "జాగ్రత్తగా": 3671,
      "29": 3672,
      "ప్రేక్షకుల": 3673,
      "సమే": 3674,
      "భారతదేశం": 3675,
      "మేలు": 3676,
      "అస్": 3677,
      "వేడి": 3678,
      "ఫిక్": 3679,
      "ప్రపంచంలో": 3680,
      "నేది": 3681,
      "దేవాల": 3682,
      "రెండవ": 3683,
      "కష్టం": 3684,
      "ప్రయోజన": 3685,
      "ంచిందని": 3686,
      "ర్యాల": 3687,
      "తున్నారని": 3688,
      "సరఫ": 3689,
      "లెక్క": 3690,
      "న్సర్": 3691,
      "అనుభ": 3692,
      "బాధితు": 3693,
      "కూలి": 3694,
      "వెల్లడించింది": 3695,
      "ఉత్తమ": 3696,
      "తదితర": 3697,
      "గుర్తించారు": 3698,
      "పరా": 3699,
      "మ్యాచ్లో": 3700,
      "ంతర": 3701,
      "ఆప్": 3702,
      "షెడ్యూ": 3703,
      "కైనా": 3704,
      "భారతదేశంలో": 3705,
      "నేర": 3706,
      "స్తుండగా": 3707,
      "కావాలని": 3708,
      "లేకపోతే": 3709,
      "సీట్లు": 3710,
      "గ్రామంలో": 3711,
      "తేజ": 3712,
      "రోజుకు": 3713,
      "చద": 3714,
      "ప్రాథమిక": 3715,
      "యూనివర్": 3716,
      "ౌన్": 3717,
      "జిల్": 3718,
      "ష్ఠ": 3719,
      "బ్రే": 3720,
      "వ్యాఖ్యానించారు": 3721,
      "రాష్ట్రపతి": 3722,
      "అంతేకాదు": 3723,
      "పెట్టుబడి": 3724,
      "ఒప్పు": 3725,
      "మరు": 3726,
      "కున్నా": 3727,
      "నెర": 3728,
      "నెస్": 3729,
      "ఛార్": 3730,
      "పౌరు": 3731,
      "వారే": 3732,
      "సంఘం": 3733,
      "ఫ్ర": 3734,
      "్యాలు": 3735,
      "సింహ": 3736,
      "వాతావరణం": 3737,
      "ప్రస్తావి": 3738,
      "కూలంగా": 3739,
      "ప్రోత్స": 3740,
      "ఎప్పు": 3741,
      "ప్రభుత్వాలు": 3742,
      "అనారో": 3743,
      "బ్రవరి": 3744,
      "ెస్ట్": 3745,
      "2019": 3746,
      "అధికంగా": 3747,
      "నాయకు": 3748,
      "బౌలింగ్": 3749,
      "అప్రమ": 3750,
      "లాలు": 3751,
      "వుతుంది": 3752,
      "అత్యధిక": 3753,
      "మండలం": 3754,
      "తుందో": 3755,
      "బయలు": 3756,
      "ఎమ్మెల్యేలు": 3757,
      "కేటీఆర్": 3758,
      "మెడి": 3759,
      "బీసీ": 3760,
      "చెప్పా": 3761,
      "మ్మల్ని": 3762,
      "ఏకంగా": 3763,
      "ఉన్నది": 3764,
      "ఫిబ్రవరి": 3765,
      "పోలింగ్": 3766,
      "మందిని": 3767,
      "దిగి": 3768,
      "తయారీ": 3769,
      "థియేటర్": 3770,
      "అయ్యే": 3771,
      "గమనార్": 3772,
      "ఉందా": 3773,
      "వేరి": 3774,
      "వ్యాప": 3775,
      "ఆయనను": 3776,
      "హోదా": 3777,
      "ఒడి": 3778,
      "తాయని": 3779,
      "ఆకా": 3780,
      "వాగ్": 3781,
      "రౌ": 3782,
      "ఎక్కడి": 3783,
      "మార్టం": 3784,
      "మేర": 3785,
      "హిందు": 3786,
      "సదు": 3787,
      "రాజకీయాల్లో": 3788,
      "డల్": 3789,
      "ప్రోత్సహి": 3790,
      "దశా": 3791,
      "న్నే": 3792,
      "బృందం": 3793,
      "ఖీ": 3794,
      "కెమెరా": 3795,
      "అంటారు": 3796,
      "డిసెంబర్": 3797,
      "కర్స్": 3798,
      "అప్పటికే": 3799,
      "యన్నారు": 3800,
      "బాలు": 3801,
      "గరి": 3802,
      "యితే": 3803,
      "ప్రభాస్": 3804,
      "ల్లీ": 3805,
      "ఫలితంగా": 3806,
      "వాణిజ్య": 3807,
      "చిరం": 3808,
      "మూర్": 3809,
      "వెలువ": 3810,
      "హౌ": 3811,
      "ప్రిల్": 3812,
      "ర్ల": 3813,
      "మాను": 3814,
      "క్రే": 3815,
      "అనుకున్న": 3816,
      "ఎలక్": 3817,
      "చోటుచేసుకుంది": 3818,
      "చిక్కు": 3819,
      "ంగం": 3820,
      "కూటమి": 3821,
      "అన్": 3822,
      "ఏప్రిల్": 3823,
      "గొట్ట": 3824,
      "ఎవరైనా": 3825,
      "చేసారు": 3826,
      "ఆశ్చర్య": 3827,
      "సెప్టె": 3828,
      "మాట్లాడారు": 3829,
      "ప్రె": 3830,
      "పోలి": 3831,
      "నిలిచి": 3832,
      "గమనార్హం": 3833,
      "ప్రాంతం": 3834,
      "వ్యతిరేకి": 3835,
      "సభ్యు": 3836,
      "ఈరోజు": 3837,
      "కెట్ల": 3838,
      "బెదిరి": 3839,
      "ఆవిష్": 3840,
      "ఖండి": 3841,
      "ఉపాధి": 3842,
      "వివరాలను": 3843,
      "మంద": 3844,
      "రంగం": 3845,
      "భాగస్వా": 3846,
      "సరికి": 3847,
      "చేయడంతో": 3848,
      "రవాణా": 3849,
      "లొ": 3850,
      "జీవన": 3851,
      "కార్పొ": 3852,
      "ఉందన్నారు": 3853,
      "శేఖర్": 3854,
      "స్థల": 3855,
      "బ్యాక్": 3856,
      "నాయి": 3857,
      "ఢీ": 3858,
      "ంతు": 3859,
      "పూర్ణ": 3860,
      "్న": 3861,
      "వచ్చాడు": 3862,
      "వంతమైన": 3863,
      "గ్రే": 3864,
      "విరాట్": 3865,
      "వ్యక్తులు": 3866,
      "దిశగా": 3867,
      "చిరంజీవి": 3868,
      "పించింది": 3869,
      "వ్యవహారం": 3870,
      "తప్పకుండా": 3871,
      "పిలి": 3872,
      "దశాబ్": 3873,
      "యేసు": 3874,
      "వచ్చని": 3875,
      "వారిపై": 3876,
      "కుంటే": 3877,
      "దానిపై": 3878,
      "క్రైస్త": 3879,
      "ఆశ్రయి": 3880,
      "ందరూ": 3881,
      "వస్తా": 3882,
      "సంగీత": 3883,
      "తూర్పు": 3884,
      "సదుపా": 3885,
      "ఆరం": 3886,
      "పరమైన": 3887,
      "రమే": 3888,
      "ంచుకోవాలి": 3889,
      "సోనియా": 3890,
      "క్రియే": 3891,
      "కురు": 3892,
      "చేయవచ్చు": 3893,
      "ంగ్లా": 3894,
      "వదిలే": 3895,
      "జరిగాయి": 3896,
      "రచయి": 3897,
      "తుండ": 3898,
      "బాధ్యతలు": 3899,
      "మంత్రిత్వ": 3900,
      "తొమ్మి": 3901,
      "దేశాన్ని": 3902,
      "పల": 3903,
      "ఇల్లు": 3904,
      "వాటిలో": 3905,
      "విద్యాల": 3906,
      "హిత": 3907,
      "టీజర్": 3908,
      "అర్ధ": 3909,
      "మార్కెట్లో": 3910,
      "్రు": 3911,
      "చైత": 3912,
      "అశ్": 3913,
      "చేతులు": 3914,
      "పడ్డాయి": 3915,
      "దై": 3916,
      "టిఫి": 3917,
      "తరఫు": 3918,
      "సహకరి": 3919,
      "అయినప్పటికీ": 3920,
      "ప్రమాణ": 3921,
      "ములను": 3922,
      "మానసిక": 3923,
      "ట్లే": 3924,
      "చేసుకొని": 3925,
      "పోయ": 3926,
      "వడ్డీ": 3927,
      "ఉష్ణ": 3928,
      "విల": 3929,
      "నీళ్లు": 3930,
      "వతి": 3931,
      "సరసన": 3932,
      "మంజూ": 3933,
      "తీసుకోవాలి": 3934,
      "ల్లోకి": 3935,
      "సరఫరా": 3936,
      "జాన్": 3937,
      "హరీ": 3938,
      "31": 3939,
      "పబ్": 3940,
      "దూర": 3941,
      "క్రీడా": 3942,
      "ఒకసారి": 3943,
      "గౌర": 3944,
      "కస్ట": 3945,
      "అదనపు": 3946,
      "చేసుకోవ": 3947,
      "చెందు": 3948,
      "డెంట్": 3949,
      "ఫలితం": 3950,
      "దేవుడు": 3951,
      "చేపట్టిన": 3952,
      "నైనా": 3953,
      "ఫ్రా": 3954,
      "రస": 3955,
      "ఉత్తర్": 3956,
      "ఆగి": 3957,
      "చూసు": 3958,
      "వెంకటే": 3959,
      "ఇటు": 3960,
      "గుణంగా": 3961,
      "అతన్ని": 3962,
      "నటిస్తున్నారు": 3963,
      "టోర్": 3964,
      "న్షన్": 3965,
      "క్షణం": 3966,
      "చేసినా": 3967,
      "స్తం": 3968,
      "స్వీకరి": 3969,
      "వాహన": 3970,
      "అద్భుతమైన": 3971,
      "అయో": 3972,
      "బండి": 3973,
      "ృప్తి": 3974,
      "మోటార్": 3975,
      "సినిమాతో": 3976,
      "అధ్యయ": 3977,
      "కాలంగా": 3978,
      "చేస్తున్నట్లు": 3979,
      "కేంద్రా": 3980,
      "ప్రియా": 3981,
      "జంతు": 3982,
      "సెన్": 3983,
      "పరిస్థితుల్లో": 3984,
      "స్నా": 3985,
      "ఎనిమిది": 3986,
      "రాజస్థాన్": 3987,
      "బ్యానర్": 3988,
      "మధ్యాహ్నం": 3989,
      "చూడండి": 3990,
      "కట్": 3991,
      "పెడ": 3992,
      "వర్మ": 3993,
      "స్టె": 3994,
      "సభ్యుల": 3995,
      "300": 3996,
      "షియల్": 3997,
      "విజయవాడ": 3998,
      "కిలోమీటర్ల": 3999,
      "పాలకు": 4000,
      "నిన్ను": 4001,
      "చూసింది": 4002,
      "ధనలు": 4003,
      "పునరు": 4004,
      "విఫల": 4005,
      "సంచలన": 4006,
      "లేన": 4007,
      "తున్నట్లు": 4008,
      "ంచుకునే": 4009,
      "గృహ": 4010,
      "ములో": 4011,
      "ఇతరు": 4012,
      "మొత్తా": 4013,
      "సులభ": 4014,
      "అక్రమ": 4015,
      "నిపుణులు": 4016,
      "పతా": 4017,
      "ఎస్టీ": 4018,
      "కామె": 4019,
      "క్రమి": 4020,
      "వసూలు": 4021,
      "పచ్చ": 4022,
      "ముగా": 4023,
      "బడుతుంది": 4024,
      "స్థిర": 4025,
      "కృష్": 4026,
      "నిర్వహించిన": 4027,
      "తీసుకుంటా": 4028,
      "ప్రయోజనం": 4029,
      "సందర్శి": 4030,
      "ఓటమి": 4031,
      "రియల్": 4032,
      "ముంది": 4033,
      "కాల్పు": 4034,
      "నియోజకవర్గ": 4035,
      "జనరల్": 4036,
      "కరం": 4037,
      "బంధ": 4038,
      "మరణించారు": 4039,
      "సంబ": 4040,
      "బీజేపీకి": 4041,
      "నెలకొంది": 4042,
      "వివాహ": 4043,
      "నివసి": 4044,
      "కొర": 4045,
      "అల్": 4046,
      "శ్రీలంక": 4047,
      "అక్టో": 4048,
      "రెండే": 4049,
      "స్తున్నాను": 4050,
      "ఉమ్మడి": 4051,
      "రోజులుగా": 4052,
      "బాక్": 4053,
      "మన్న": 4054,
      "శానికి": 4055,
      "నేతల": 4056,
      "మలయా": 4057,
      "తెలిసి": 4058,
      "కటి": 4059,
      "బైబి": 4060,
      "స్వే": 4061,
      "తెలిసిన": 4062,
      "ంచుకోవడం": 4063,
      "సేవలు": 4064,
      "ఎడ": 4065,
      "నేనే": 4066,
      "బుక్": 4067,
      "బంగ్లా": 4068,
      "ద్యో": 4069,
      "డబ్": 4070,
      "రాదు": 4071,
      "శ్రద్ధ": 4072,
      "టాలీవుడ్": 4073,
      "చూశా": 4074,
      "సర్వే": 4075,
      "అందిస్తున్నారు": 4076,
      "సెంచ": 4077,
      "ారే": 4078,
      "విషా": 4079,
      "చక్ర": 4080,
      "స్ర్": 4081,
      "అయ్య": 4082,
      "సన్న": 4083,
      "కోండి": 4084,
      "అంచనాలు": 4085,
      "ట్యూ": 4086,
      "నవం": 4087,
      "విజ్ఞ": 4088,
      "నగరంలో": 4089,
      "కమ్యూ": 4090,
      "స్ఫూ": 4091,
      "కొంచె": 4092,
      "పూరి": 4093,
      "పెట్రోల్": 4094,
      "చేయు": 4095,
      "లాభ": 4096,
      "పాదన": 4097,
      "ఇదంతా": 4098,
      "కమిషన్": 4099,
      "లకి": 4100,
      "కాలను": 4101,
      "కపోవడం": 4102,
      "జిల్లాల్లో": 4103,
      "నిర్మిస్తున్నారు": 4104,
      "ఎవరికీ": 4105,
      "ఇండస్ట్రీ": 4106,
      "వద్దు": 4107,
      "అప": 4108,
      "తరహా": 4109,
      "తుకు": 4110,
      "కన్నడ": 4111,
      "ఇవన్నీ": 4112,
      "వెండి": 4113,
      "తెరకెక్కు": 4114,
      "దుపరి": 4115,
      "మహమ్మ": 4116,
      "వెలు": 4117,
      "పరచ": 4118,
      "ఉద్యోగ": 4119,
      "ఇటీవలే": 4120,
      "ంక్": 4121,
      "ఆహ్వాని": 4122,
      "విని": 4123,
      "జూన్": 4124,
      "మేకర్స్": 4125,
      "సమర్పి": 4126,
      "తదుపరి": 4127,
      "గుడ్": 4128,
      "ప్రపంచవ్యాప్తంగా": 4129,
      "వర్క్": 4130,
      "ంచేలా": 4131,
      "చైర్మన్": 4132,
      "జాతి": 4133,
      "కనుక": 4134,
      "మిలియన్": 4135,
      "సీతారా": 4136,
      "నౌ": 4137,
      "టాప్": 4138,
      "ఏపీలో": 4139,
      "స్ఫూర్తి": 4140,
      "బ్యూ": 4141,
      "షాక్": 4142,
      "ర్షణ": 4143,
      "వలసి": 4144,
      "ట్రిక్": 4145,
      "టికల్": 4146,
      "కేసుల": 4147,
      "ద్రి": 4148,
      "ప్రదర్శన": 4149,
      "ండ్ల": 4150,
      "అధికారం": 4151,
      "ప్రశ్నలు": 4152,
      "లక్ష్మీ": 4153,
      "నడ": 4154,
      "ాల్సింది": 4155,
      "జోడి": 4156,
      "క్యారె": 4157,
      "తంత్ర": 4158,
      "ీకరణ": 4159,
      "చేస్తున్నారని": 4160,
      "కాపాడు": 4161,
      "సెంచరీ": 4162,
      "ల్యా": 4163,
      "విషయమై": 4164,
      "ండ్లు": 4165,
      "బల్": 4166,
      "కుంటున్న": 4167,
      "ంచగల": 4168,
      "సినిమాని": 4169,
      "పోతున్నారు": 4170,
      "ప్రత్యక్ష": 4171,
      "జరుగుతున్నాయి": 4172,
      "ధారి": 4173,
      "పుర": 4174,
      "పొర": 4175,
      "ఏళ్లు": 4176,
      "కార్యకలా": 4177,
      "దీప్": 4178,
      "చూసుకు": 4179,
      "చేశాయి": 4180,
      "చేసుకోవాలి": 4181,
      "సక్": 4182,
      "అంశంపై": 4183,
      "స్లా": 4184,
      "ఎస్సీ": 4185,
      "ఆదేశాలు": 4186,
      "ఆసియా": 4187,
      "ఎర్ర": 4188,
      "చివరకు": 4189,
      "కృతజ్ఞ": 4190,
      "ందున": 4191,
      "బ్రహ్మ": 4192,
      "సురక్షి": 4193,
      "ఆన": 4194,
      "కేజీ": 4195,
      "వరల్డ్": 4196,
      "రావడంతో": 4197,
      "న్యాయమూర్తి": 4198,
      "రిజి": 4199,
      "దేశ్": 4200,
      "విక్రమ్": 4201,
      "గతం": 4202,
      "ణ్ణి": 4203,
      "వృత్తి": 4204,
      "ఒక్కసారిగా": 4205,
      "ముఖ్యం": 4206,
      "ఎవరో": 4207,
      "చూస్తూ": 4208,
      "జమ్": 4209,
      "ఆరోగ్యా": 4210,
      "స్థానాల్లో": 4211,
      "నిలిచింది": 4212,
      "క్షేత్ర": 4213,
      "ంగానే": 4214,
      "వెబ్": 4215,
      "వులకు": 4216,
      "చోట": 4217,
      "డింగ్": 4218,
      "స్తాను": 4219,
      "సేకరి": 4220,
      "ోగ్ర": 4221,
      "సంయు": 4222,
      "వెల్": 4223,
      "ఉన్నారని": 4224,
      "అతిపెద్ద": 4225,
      "స్పా": 4226,
      "స్పద": 4227,
      "నేతృ": 4228,
      "చివరికి": 4229,
      "ఆధు": 4230,
      "చెప్పాలి": 4231,
      "స్తున్నామని": 4232,
      "వస్తోంది": 4233,
      "పోటు": 4234,
      "ష్టా": 4235,
      "ంఛ": 4236,
      "ఈడీ": 4237,
      "మండలి": 4238,
      "తమే": 4239,
      "తీసుకొని": 4240,
      "పంపిణీ": 4241,
      "ఆకట్టుకు": 4242,
      "కరీ": 4243,
      "కోర్టులో": 4244,
      "పోస్టుమార్టం": 4245,
      "ంచబడింది": 4246,
      "నాటక": 4247,
      "త్సవం": 4248,
      "ట్యా": 4249,
      "కొనే": 4250,
      "బలహీ": 4251,
      "ఐదుగురు": 4252,
      "ందరికీ": 4253,
      "ప్రసం": 4254,
      "వీరికి": 4255,
      "తెగ": 4256,
      "చేస్తున్నాడు": 4257,
      "విషయంపై": 4258,
      "కార్యక్రమానికి": 4259,
      "జల్": 4260,
      "ధక": 4261,
      "భిన్నంగా": 4262,
      "ఏర్పడింది": 4263,
      "జ్ఞాన": 4264,
      "తుంటే": 4265,
      "స్తున్నాం": 4266,
      "లక్ష్యంగా": 4267,
      "ఓట్లు": 4268,
      "ల్సీ": 4269,
      "చ్చాడు": 4270,
      "స్థితి": 4271,
      "తీసుకోవడం": 4272,
      "తెలియని": 4273,
      "భావిస్తున్నారు": 4274,
      "దళి": 4275,
      "ట్రె": 4276,
      "స్తానని": 4277,
      "రాజ్యసభ": 4278,
      "స్పష్టంగా": 4279,
      "కింది": 4280,
      "విజయాన్ని": 4281,
      "ఉష్ణోగ్ర": 4282,
      "కోటి": 4283,
      "సెప్టెంబర్": 4284,
      "ఆసుపత్రిలో": 4285,
      "కపోవడంతో": 4286,
      "రంగంలోకి": 4287,
      "పాల్గొన": 4288,
      "వీటిలో": 4289,
      "ర్థ": 4290,
      "ఇంటర్వ్యూ": 4291,
      "ఆదేశించారు": 4292,
      "శబ్": 4293,
      "జిత్": 4294,
      "సంతోషంగా": 4295,
      "కొక్క": 4296,
      "చరణ": 4297,
      "పుట్టి": 4298,
      "2020": 4299,
      "వేదికగా": 4300,
      "నోటీ": 4301,
      "సంప్రది": 4302,
      "దేశాలకు": 4303,
      "పన్న": 4304,
      "వెళ్లిన": 4305,
      "విలువైన": 4306,
      "ఒకవేళ": 4307,
      "వాయు": 4308,
      "ప్రకటించిన": 4309,
      "వివాదం": 4310,
      "తిరస్": 4311,
      "న్నింటి": 4312,
      "మెరుగ": 4313,
      "చుట్టు": 4314,
      "నవ": 4315,
      "నన్న": 4316,
      "మానం": 4317,
      "బంగారు": 4318,
      "గాక": 4319,
      "పాకిస్థాన్": 4320,
      "వల్లే": 4321,
      "ఎమ్మెల్సీ": 4322,
      "చేయనున్నారు": 4323,
      "గణి": 4324,
      "కళ్ళ": 4325,
      "ముంద": 4326,
      "సీఐ": 4327,
      "రాష్ట్రంలోని": 4328,
      "ంచాను": 4329,
      "కుట్ర": 4330,
      "పిల్": 4331,
      "అంబ": 4332,
      "సంబంధిత": 4333,
      "జాల": 4334,
      "తుది": 4335,
      "టికెట్": 4336,
      "అధికారికంగా": 4337,
      "కొంచెం": 4338,
      "సచి": 4339,
      "వేసు": 4340,
      "సరిగ్గా": 4341,
      "గడ్డ": 4342,
      "అనిల్": 4343,
      "సలహా": 4344,
      "స్పీకర్": 4345,
      "చెంది": 4346,
      "స్తున్నది": 4347,
      "కార్యకర్తలు": 4348,
      "దర్శనం": 4349,
      "వారితో": 4350,
      "స్టీ": 4351,
      "బలమైన": 4352,
      "విస్తృ": 4353,
      "సంచల": 4354,
      "ఒప్పందం": 4355,
      "వస్తున్నాయి": 4356,
      "రానున్న": 4357,
      "గట్టిగా": 4358,
      "ర్చి": 4359,
      "దుర": 4360,
      "బయలుదే": 4361,
      "వచ్ఛ": 4362,
      "చిత్రాలు": 4363,
      "నవీ": 4364,
      "పరిష్కారం": 4365,
      "తరఫున": 4366,
      "చేస్తున్నాయి": 4367,
      "కోసమే": 4368,
      "అవుతోంది": 4369,
      "ంటరి": 4370,
      "నిశ్": 4371,
      "దశలో": 4372,
      "ఖ్": 4373,
      "మెద": 4374,
      "ఆల్": 4375,
      "పర్యటి": 4376,
      "క్రికె": 4377,
      "పాటలు": 4378,
      "అభ్యర్థులు": 4379,
      "సమాన": 4380,
      "పాత్రలు": 4381,
      "గాయాలయ్యాయి": 4382,
      "బెంగాల్": 4383,
      "స్వల్ప": 4384,
      "చాలు": 4385,
      "డెన్": 4386,
      "బౌలర్": 4387,
      "మనుష": 4388,
      "అలవాటు": 4389,
      "ఎదుర్": 4390,
      "విభజన": 4391,
      "అక్కడికి": 4392,
      "అద్ద": 4393,
      "సొంతం": 4394,
      "నిరూ": 4395,
      "ంచని": 4396,
      "తున్నది": 4397,
      "వినియోగం": 4398,
      "పాప": 4399,
      "రిక": 4400,
      "రూపంలో": 4401,
      "ర్యాలీ": 4402,
      "ఉద్రి": 4403,
      "తీసుకుంది": 4404,
      "పోరాటం": 4405,
      "వాటికి": 4406,
      "వేషన్": 4407,
      "వందల": 4408,
      "స్తుంటే": 4409,
      "సమర్థ": 4410,
      "గడం": 4411,
      "విటమి": 4412,
      "గుంటూ": 4413,
      "పేలు": 4414,
      "ంచామని": 4415,
      "నాలజీ": 4416,
      "సోదరు": 4417,
      "సురేష్": 4418,
      "ట్లుగా": 4419,
      "ంచకుండా": 4420,
      "ప్రతినిధి": 4421,
      "మంజూరు": 4422,
      "విద్యార్థులకు": 4423,
      "జాబితాలో": 4424,
      "ాల్ని": 4425,
      "యూపీ": 4426,
      "అత్యు": 4427,
      "నీల్": 4428,
      "నాశ": 4429,
      "పోర్టు": 4430,
      "ంట్రీ": 4431,
      "ఉద్యోగు": 4432,
      "భక్తి": 4433,
      "మిటి": 4434,
      "లోపే": 4435,
      "కిల్": 4436,
      "దినో": 4437,
      "వీరిలో": 4438,
      "ఉల్లి": 4439,
      "లభించింది": 4440,
      "ంచుకొని": 4441,
      "అన్నా": 4442,
      "తులతో": 4443,
      "త్తులు": 4444,
      "ఆమోది": 4445,
      "కేసును": 4446,
      "పబ్లి": 4447,
      "చేయగా": 4448,
      "జున": 4449,
      "దారుల": 4450,
      "శుభా": 4451,
      "టెక్నాలజీ": 4452,
      "గ్రామీ": 4453,
      "వాదం": 4454,
      "అనుభవి": 4455,
      "లబ్": 4456,
      "వండి": 4457,
      "కొనసాగుతోంది": 4458,
      "నినా": 4459,
      "ఫుల్": 4460,
      "ఎక్కడా": 4461,
      "పాజిటివ్": 4462,
      "కోట": 4463,
      "కమ్యూని": 4464,
      "మైతే": 4465,
      "తుండగా": 4466,
      "లాల్": 4467,
      "సగ": 4468,
      "పోతోంది": 4469,
      "నివేది": 4470,
      "గితే": 4471,
      "ప్రయోజనాలు": 4472,
      "వనే": 4473,
      "యాక్షన్": 4474,
      "ప్రాధాన్యత": 4475,
      "ఎదుర": 4476,
      "నిల్": 4477,
      "బిజీ": 4478,
      "కలసి": 4479,
      "ంత్రి": 4480,
      "చల్": 4481,
      "గుంటూరు": 4482,
      "వుంటే": 4483,
      "రోగ": 4484,
      "అనుగుణంగా": 4485,
      "విడుదలైన": 4486,
      "జపా": 4487,
      "మార్చు": 4488,
      "కుటుంబానికి": 4489,
      "అప్రమత్త": 4490,
      "ఒంటరి": 4491,
      "వాలి": 4492,
      "ధర్మాస": 4493,
      "ఓవర్లలో": 4494,
      "మంటే": 4495,
      "స్వచ్ఛ": 4496,
      "ద్వే": 4497,
      "లక్ష్మి": 4498,
      "సమి": 4499,
      "చిత్త": 4500,
      "అవ్వ": 4501,
      "ప్రాజెక్ట్": 4502,
      "150": 4503,
      "పిండి": 4504,
      "యినా": 4505,
      "హాలను": 4506,
      "జైన్": 4507,
      "టెస్ట్": 4508,
      "మొదలైంది": 4509,
      "దిలీ": 4510,
      "పురస్": 4511,
      "ఆలయ": 4512,
      "భౌ": 4513,
      "అక్టోబర్": 4514,
      "ముద్ర": 4515,
      "పాత్రల్లో": 4516,
      "పసి": 4517,
      "కానికి": 4518,
      "ప్రభావి": 4519,
      "బొమ్మ": 4520,
      "ఉండడం": 4521,
      "చెప్పడం": 4522,
      "టిక్": 4523,
      "క్రాంతి": 4524,
      "కేష్": 4525,
      "షెడ్యూల్": 4526,
      "ఆర్టీసీ": 4527,
      "లెట్": 4528,
      "మోసం": 4529,
      "చూస్తున్నారు": 4530,
      "ంటికి": 4531,
      "సరికొత్త": 4532,
      "విశ్వవిద్యాల": 4533,
      "దృష్టిలో": 4534,
      "భర": 4535,
      "అప్పట్లో": 4536,
      "ష్ణు": 4537,
      "శర": 4538,
      "తయార": 4539,
      "ఖరి": 4540,
      "యాక్": 4541,
      "దంప": 4542,
      "ఉద్దేశ": 4543,
      "నచ్చ": 4544,
      "వేసే": 4545,
      "గోపాల్": 4546,
      "ఆరుగు": 4547,
      "ముక్క": 4548,
      "సాలు": 4549,
      "సాధన": 4550,
      "అనుమానం": 4551,
      "ఆవేదన": 4552,
      "విన్న": 4553,
      "చెల": 4554,
      "రేట్": 4555,
      "విర": 4556,
      "కళాశాల": 4557,
      "మ్యూజిక్": 4558,
      "నవంబర్": 4559,
      "సంబంధాలు": 4560,
      "అలీ": 4561,
      "విపరీ": 4562,
      "ంగల్": 4563,
      "జెండా": 4564,
      "ప్రైవేట్": 4565,
      "దలకు": 4566,
      "వౌ": 4567,
      "అతడిని": 4568,
      "క్యాన్సర్": 4569,
      "ఇటువంటి": 4570,
      "ంచబో": 4571,
      "మాం": 4572,
      "నర్జీ": 4573,
      "తున్నాను": 4574,
      "వనరు": 4575,
      "నిందితులను": 4576,
      "విశ్వాసం": 4577,
      "లేకపోయా": 4578,
      "నీటిని": 4579,
      "కుంటూ": 4580,
      "యువత": 4581,
      "కక్కడే": 4582,
      "ందాం": 4583,
      "నియంత్ర": 4584,
      "పరిశోధన": 4585,
      "48": 4586,
      "శత్రు": 4587,
      "ఇవ్వడం": 4588,
      "వన్డే": 4589,
      "33": 4590,
      "అట": 4591,
      "కట్టి": 4592,
      "న్నత": 4593,
      "దేవా": 4594,
      "దాడికి": 4595,
      "జమ్మూ": 4596,
      "కేజ": 4597,
      "బాస్": 4598,
      "సంస్థల": 4599,
      "యువతి": 4600,
      "మేనే": 4601,
      "తారని": 4602,
      "రాని": 4603,
      "తున్నాయని": 4604,
      "వున్నాయి": 4605,
      "హాట్": 4606,
      "కృష్ణా": 4607,
      "తుందా": 4608,
      "పుట్ట": 4609,
      "శతాబ్": 4610,
      "బృంద": 4611,
      "బార్": 4612,
      "తామని": 4613,
      "గోడ": 4614,
      "కాంక్షలు": 4615,
      "పరిస్థితిని": 4616,
      "కనుగొ": 4617,
      "వెల్లు": 4618,
      "విపక్ష": 4619,
      "ంచినట్టు": 4620,
      "ఎగ్": 4621,
      "వూ": 4622,
      "నేరుగా": 4623,
      "రికార్": 4624,
      "బైబిలు": 4625,
      "దీనివల్ల": 4626,
      "తక్కువగా": 4627,
      "గాయాలు": 4628,
      "సాంగ్": 4629,
      "విద్యార్థుల": 4630,
      "వాస్తవ": 4631,
      "ఒక్కొక్క": 4632,
      "అమర్": 4633,
      "వాదన": 4634,
      "జీర్": 4635,
      "సెంటర్": 4636,
      "ఊపి": 4637,
      "ఉద్యోగాలు": 4638,
      "ఈమె": 4639,
      "తోడు": 4640,
      "ఈనెల": 4641,
      "దేవర": 4642,
      "మాధ్య": 4643,
      "సిరి": 4644,
      "ధృ": 4645,
      "వివే": 4646,
      "దీనితో": 4647,
      "ఎవరికి": 4648,
      "షిప్": 4649,
      "జ్యో": 4650,
      "సమ్": 4651,
      "మిలీ": 4652,
      "రోజున": 4653,
      "బలం": 4654,
      "ప్రయాణం": 4655,
      "సక్సెస్": 4656,
      "తుంటారు": 4657,
      "చిన్నారు": 4658,
      "మున్సి": 4659,
      "గిల్": 4660,
      "శె": 4661,
      "పెట్టాడు": 4662,
      "గని": 4663,
      "సమస్యలను": 4664,
      "విక్రయి": 4665,
      "సంక్షేమ": 4666,
      "బాల్": 4667,
      "చేతి": 4668,
      "పిలుపుని": 4669,
      "నాశ్ర": 4670,
      "న్నర": 4671,
      "డొ": 4672,
      "ఆగస్టు": 4673,
      "విష్ణు": 4674,
      "క్షో": 4675,
      "స్పందించారు": 4676,
      "తెలుస్తుంది": 4677,
      "దుగా": 4678,
      "డిజి": 4679,
      "శాయి": 4680,
      "ఏమైనా": 4681,
      "హ్య": 4682,
      "తెరి": 4683,
      "వెళు": 4684,
      "సీత": 4685,
      "పొత్తు": 4686,
      "సహకార": 4687,
      "పోస్టర్": 4688,
      "కడుపు": 4689,
      "తలకు": 4690,
      "విత్ర": 4691,
      "దిగ్": 4692,
      "తీసే": 4693,
      "లైంగి": 4694,
      "మెత్త": 4695,
      "ండింగ్": 4696,
      "ఫ్యాన్స్": 4697,
      "మొక్క": 4698,
      "ప్రకృతి": 4699,
      "అక్కడికక్కడే": 4700,
      "ప్రైవేటు": 4701,
      "ోల్": 4702,
      "వస్తాయి": 4703,
      "నియంత్రణ": 4704,
      "కేజ్రీ": 4705,
      "పలి": 4706,
      "దొరక": 4707,
      "స్టేట్": 4708,
      "పుల్": 4709,
      "కంఠ": 4710,
      "చేసుకోవచ్చు": 4711,
      "నాణ్య": 4712,
      "శరీర": 4713,
      "రాష్ట్రానికి": 4714,
      "మామూ": 4715,
      "సులో": 4716,
      "తాం": 4717,
      "కలెక్టర్": 4718,
      "త్వాన్ని": 4719,
      "తిరి": 4720,
      "శరీరం": 4721,
      "కశ్మీర్": 4722,
      "మయ్యాయి": 4723,
      "లన్నీ": 4724,
      "సిద్ద": 4725,
      "కారి": 4726,
      "జరిగిందని": 4727,
      "నాథ": 4728,
      "స్తారా": 4729,
      "ట్లలో": 4730,
      "కళ్ళు": 4731,
      "యాజ": 4732,
      "యజ": 4733,
      "విమానాశ్ర": 4734,
      "కావచ్చు": 4735,
      "మహిళలకు": 4736,
      "క్యం": 4737,
      "బలంగా": 4738,
      "వెళ్లారు": 4739,
      "లేకపోయింది": 4740,
      "చేరిన": 4741,
      "బారిన": 4742,
      "విన్": 4743,
      "నిలిపి": 4744,
      "ఎల్ల": 4745,
      "రెడీ": 4746,
      "ట్రాఫిక్": 4747,
      "క్కె": 4748,
      "ారానికి": 4749,
      "అయ్యా": 4750,
      "నకి": 4751,
      "చిన్నారి": 4752,
      "కేజ్రీవాల్": 4753,
      "ఇరా": 4754,
      "జాయి": 4755,
      "ప్రణాళిక": 4756,
      "ప్రశాంత": 4757,
      "భవన": 4758,
      "క్తంగా": 4759,
      "లభిస్తుంది": 4760,
      "మమ": 4761,
      "నున్నట్లు": 4762,
      "వైన": 4763,
      "జిల్లాలోని": 4764,
      "మధ్యలో": 4765,
      "జరిపి": 4766,
      "జరిపిన": 4767,
      "నిష్": 4768,
      "పైనే": 4769,
      "మైనది": 4770,
      "పరిధిలో": 4771,
      "ప్రవర్తి": 4772,
      "నగరం": 4773,
      "కమిషనర్": 4774,
      "ులర్": 4775,
      "ప్రపంచం": 4776,
      "చారాన్ని": 4777,
      "మావో": 4778,
      "విచారణకు": 4779,
      "తెలుసుకున్న": 4780,
      "తనిఖీ": 4781,
      "సూత్ర": 4782,
      "స్క్": 4783,
      "ఆస్పత్రిలో": 4784,
      "వై": 4785,
      "400": 4786,
      "ఇంగ్లాండ్": 4787,
      "వేరియం": 4788,
      "గొంతు": 4789,
      "ఘి": 4790,
      "ఘర్షణ": 4791,
      "రమేష్": 4792,
      "వ్యాయా": 4793,
      "్యాత్": 4794,
      "ప్రాంతాల": 4795,
      "ఎంతగా": 4796,
      "కల్యాణ్": 4797,
      "మిస్": 4798,
      "యాంటీ": 4799,
      "జుట్టు": 4800,
      "బంగ్లాదేశ్": 4801,
      "వయస్సు": 4802,
      "ఫైనల్": 4803,
      "హను": 4804,
      "199": 4805,
      "వద్దకు": 4806,
      "ప్రమో": 4807,
      "పోష": 4808,
      "ఆం": 4809,
      "దరణ": 4810,
      "వజ": 4811,
      "బడ్డ": 4812,
      "కూరు": 4813,
      "ఆశ్చర్": 4814,
      "మూసి": 4815,
      "వుండే": 4816,
      "తాత్": 4817,
      "పర్యవే": 4818,
      "36": 4819,
      "ఉత్తరప్రదేశ్": 4820,
      "తక": 4821,
      "దాన": 4822,
      "మధ్యప్రదేశ్": 4823,
      "భూతి": 4824,
      "నిరాశ": 4825,
      "ధర్మాసనం": 4826,
      "ఐక్య": 4827,
      "తతో": 4828,
      "పల్లె": 4829,
      "కౌంటర్": 4830,
      "జాగ్రత్తలు": 4831,
      "అరవి": 4832,
      "కుప్ప": 4833,
      "ఎంట్రీ": 4834,
      "గ్రం": 4835,
      "ఆదు": 4836,
      "ఎగు": 4837,
      "స్వి": 4838,
      "లేం": 4839,
      "ంచుకున్నాడు": 4840,
      "ఉత్తరా": 4841,
      "పేర్": 4842,
      "అధ్యయనం": 4843,
      "వర్ణ": 4844,
      "దూరంలో": 4845,
      "సైనిక": 4846,
      "ంచడమే": 4847,
      "లాగా": 4848,
      "పోతున్నాయి": 4849,
      "బ్రహ్": 4850,
      "తొమ్మిది": 4851,
      "జ్ఞానం": 4852,
      "సిక్": 4853,
      "ఆర్మీ": 4854,
      "సిసి": 4855,
      "ఆలయం": 4856,
      "గౌరవ": 4857,
      "ఉన్నప్పుడు": 4858,
      "అర్ధం": 4859,
      "కాలిక": 4860,
      "చెలరే": 4861,
      "అటువంటి": 4862,
      "47": 4863,
      "కిడ్": 4864,
      "డియం": 4865,
      "గాలను": 4866,
      "వేత": 4867,
      "పార్టీని": 4868,
      "రామకృష్ణ": 4869,
      "వెనక": 4870,
      "అంశాలపై": 4871,
      "యస్": 4872,
      "దొరికి": 4873,
      "వంతం": 4874,
      "విజ్ఞప్తి": 4875,
      "సింగ": 4876,
      "జింగ్": 4877,
      "మొదలైన": 4878,
      "దానం": 4879,
      "తెలుపు": 4880,
      "చైతన్య": 4881,
      "శుభాకాంక్షలు": 4882,
      "తొలిసారి": 4883,
      "ఆధునిక": 4884,
      "ధార": 4885,
      "టీమ్": 4886,
      "లక్షణ": 4887,
      "హైదరాబాద్లో": 4888,
      "దాల": 4889,
      "సంపద": 4890,
      "చ్చా": 4891,
      "శాశ్": 4892,
      "నిరుద్యో": 4893,
      "నుంచీ": 4894,
      "మరికొన్ని": 4895,
      "నిర్ణయాలు": 4896,
      "రిజర్వేషన్": 4897,
      "సద": 4898,
      "బెట్ట": 4899,
      "అందుబాటులోకి": 4900,
      "కాలా": 4901,
      "డట": 4902,
      "గ్లా": 4903,
      "ద్రవ్య": 4904,
      "ఆధ్యాత్": 4905,
      "అమ్ము": 4906,
      "కత్తి": 4907,
      "నటన": 4908,
      "వినో": 4909,
      "నేల": 4910,
      "ఫిల్": 4911,
      "యంతో": 4912,
      "సాన్ని": 4913,
      "హెల్": 4914,
      "నిరోధక": 4915,
      "కీర్తి": 4916,
      "స్థలం": 4917,
      "మొబై": 4918,
      "ఇంకో": 4919,
      "పటే": 4920,
      "దిగారు": 4921,
      "పారిశ్రా": 4922,
      "చేరుకున్నారు": 4923,
      "మ్యం": 4924,
      "సమాచార": 4925,
      "దోష": 4926,
      "కనిపిస్తోంది": 4927,
      "క్ట": 4928,
      "నిర్మించారు": 4929,
      "తట్టు": 4930,
      "గ్స్": 4931,
      "రణి": 4932,
      "అద్భుతంగా": 4933,
      "మాదిరి": 4934,
      "విషయాల": 4935,
      "డేట్": 4936,
      "పంచా": 4937,
      "కొద్దిగా": 4938,
      "మినహాయి": 4939,
      "నిర్ధారి": 4940,
      "ఈవె": 4941,
      "వళి": 4942,
      "స్తుండ": 4943,
      "షర్": 4944,
      "తీశారు": 4945,
      "టాటా": 4946,
      "వంటివి": 4947,
      "కప్పు": 4948,
      "సస్పె": 4949,
      "భావన": 4950,
      "లని": 4951,
      "స్క్రీ": 4952,
      "ఆనందం": 4953,
      "రాడు": 4954,
      "బాగానే": 4955,
      "ారనే": 4956,
      "తిన్": 4957,
      "కలుపు": 4958,
      "ఉద్రిక్త": 4959,
      "చాల": 4960,
      "దారితీ": 4961,
      "లేచి": 4962,
      "ఫ్యామిలీ": 4963,
      "పాయింట్": 4964,
      "సంఘటనా": 4965,
      "నైపుణ": 4966,
      "ఒక్కరి": 4967,
      "ఫీచర్": 4968,
      "కన్నీ": 4969,
      "తీసుకునే": 4970,
      "భోజనం": 4971,
      "డిపి": 4972,
      "అత్యధి": 4973,
      "టోర్నీ": 4974,
      "ఎండ": 4975,
      "ఉండవచ్చు": 4976,
      "క్రీడ": 4977,
      "ఆమోదం": 4978,
      "విరుద్ధ": 4979,
      "ఎక్కు": 4980,
      "ఇళ్ల": 4981,
      "ముడి": 4982,
      "వెలి": 4983,
      "మూడే": 4984,
      "వృద్ధ": 4985,
      "తరి": 4986,
      "వెను": 4987,
      "అనంత": 4988,
      "ప్రధానంగా": 4989,
      "32": 4990,
      "ఘు": 4991,
      "స్కోరు": 4992,
      "ఫైర్": 4993,
      "జన్మ": 4994,
      "గలుగు": 4995,
      "పప్పు": 4996,
      "మార్ట్": 4997,
      "కంపై": 4998,
      "దారులకు": 4999,
      "వ్రా": 5000,
      "క్రో": 5001,
      "2018": 5002,
      "బిగ్": 5003,
      "లిమి": 5004,
      "రవీ": 5005,
      "ఉన్నట్టు": 5006,
      "ఉల్లం": 5007,
      "క్షతగా": 5008,
      "పెట్టుకుని": 5009,
      "తరం": 5010,
      "సవి": 5011,
      "సెక్షన్": 5012,
      "పునరా": 5013,
      "కోవిడ్": 5014,
      "ంటుందని": 5015,
      "సంక్షో": 5016,
      "పార్ట్": 5017,
      "గర్భ": 5018,
      "గ్రామీణ": 5019,
      "పత్తి": 5020,
      "ంత్య": 5021,
      "తీవ్రమైన": 5022,
      "ఎన్నికలకు": 5023,
      "నామినేషన్": 5024,
      "శాతానికి": 5025,
      "నిండి": 5026,
      "ఉద్యోగులు": 5027,
      "సమీపంలో": 5028,
      "నియామ": 5029,
      "యాలను": 5030,
      "బాట": 5031,
      "శక్తిని": 5032,
      "వస్తుందని": 5033,
      "మెడికల్": 5034,
      "ఆదేశించింది": 5035,
      "స్టిక్": 5036,
      "మీడియాతో": 5037,
      "రన్": 5038,
      "ఇచ్చాడు": 5039,
      "భాలు": 5040,
      "సుఖ": 5041,
      "సంక్రాంతి": 5042,
      "కనిపించింది": 5043,
      "మృతుల": 5044,
      "త్వంలోని": 5045,
      "సులభం": 5046,
      "కోచ్": 5047,
      "పిలు": 5048,
      "బంధం": 5049,
      "ద్రో": 5050,
      "అనుభవం": 5051,
      "కండ": 5052,
      "ంచేది": 5053,
      "కది": 5054,
      "నివారి": 5055,
      "చేయాల్సి": 5056,
      "నిజమే": 5057,
      "హింస": 5058,
      "న్యాయస్థానం": 5059,
      "బరు": 5060,
      "అంశాలు": 5061,
      "ఇప్పు": 5062,
      "మయ్యే": 5063,
      "ఇస్లా": 5064,
      "ఎగ": 5065,
      "వేచి": 5066,
      "స్థాయికి": 5067,
      "నిరూపి": 5068,
      "మాట్లాడే": 5069,
      "చూశాడు": 5070,
      "రాష్ట్రాలు": 5071,
      "బడే": 5072,
      "శ్వాస": 5073,
      "టికీ": 5074,
      "పెరుగుతుంది": 5075,
      "దెబ్బతి": 5076,
      "37": 5077,
      "చేయగల": 5078,
      "చేస్తాయి": 5079,
      "బడ్డాయి": 5080,
      "నాలుగో": 5081,
      "వలస": 5082,
      "లోపల": 5083,
      "మలా": 5084,
      "ముంబయి": 5085,
      "ఆకర్షి": 5086,
      "కప్పుడు": 5087,
      "జను": 5088,
      "రక్": 5089,
      "పులి": 5090,
      "ధులను": 5091,
      "స్థానాలు": 5092,
      "నిర్మించిన": 5093,
      "కావు": 5094,
      "సెట్": 5095,
      "క్షన్స్": 5096,
      "గ్రూప్": 5097,
      "చిపో": 5098,
      "హానికి": 5099,
      "నిర్మాతలు": 5100,
      "ఎకర": 5101,
      "స్పెషల్": 5102,
      "నార్": 5103,
      "చేసుకునే": 5104,
      "కన్ను": 5105,
      "ఆరోపి": 5106,
      "చేశాను": 5107,
      "రాజకీయాలు": 5108,
      "కేంద్రంలో": 5109,
      "అమెరికాలో": 5110,
      "ఆపరేషన్": 5111,
      "అబ్బాయి": 5112,
      "హృదయ": 5113,
      "గుడి": 5114,
      "ంబు": 5115,
      "స్తుంటారు": 5116,
      "స్వేచ్ఛ": 5117,
      "నిక్": 5118,
      "పసు": 5119,
      "స్వతంత్ర": 5120,
      "డవు": 5121,
      "రాబోయే": 5122,
      "గుప్": 5123,
      "పరిగణి": 5124,
      "చరు": 5125,
      "నమ్ము": 5126,
      "సిగ్గు": 5127,
      "భాజపా": 5128,
      "బయటికి": 5129,
      "అద్భుత": 5130,
      "ధ్వం": 5131,
      "చేరారు": 5132,
      "కాబో": 5133,
      "అధికారులకు": 5134,
      "వద్దని": 5135,
      "ంచాం": 5136,
      "మెరుగైన": 5137,
      "సవరణ": 5138,
      "అవును": 5139,
      "పరిష్కార": 5140,
      "గ్రీన్": 5141,
      "అనుమాని": 5142,
      "యతీ": 5143,
      "న్నాం": 5144,
      "యూనిట్": 5145,
      "65": 5146,
      "డ్ని": 5147,
      "పడితే": 5148,
      "ఆనందంగా": 5149,
      "మిషన్": 5150,
      "ఫేస్": 5151,
      "పటేల్": 5152,
      "తీర": 5153,
      "డేటా": 5154,
      "దర్శకు": 5155,
      "పాదయాత్ర": 5156,
      "స్వాతంత్య": 5157,
      "ఏమాత్రం": 5158,
      "కంటె": 5159,
      "ూర్": 5160,
      "సినిమాల": 5161,
      "రాసిన": 5162,
      "అందించిన": 5163,
      "నడిపి": 5164,
      "వాదాలు": 5165,
      "ఖచ్చితంగా": 5166,
      "మిమ్మల్ని": 5167,
      "మయ్యారు": 5168,
      "వర్యంలో": 5169,
      "త్తుగా": 5170,
      "ఆధి": 5171,
      "ఐదే": 5172,
      "వెలుగులోకి": 5173,
      "చర్మం": 5174,
      "తర్వా": 5175,
      "అధికారుల": 5176,
      "తాగు": 5177,
      "ఆశీ": 5178,
      "డీజిల్": 5179,
      "చరిత్రలో": 5180,
      "మలు": 5181,
      "ఇంతకీ": 5182,
      "టైన": 5183,
      "అధికారులను": 5184,
      "ముక్కలు": 5185,
      "పద్మ": 5186,
      "అనూ": 5187,
      "ఇంతకు": 5188,
      "తలను": 5189,
      "ధను": 5190,
      "లవ్": 5191,
      "తేల్": 5192,
      "సర్కార్": 5193,
      "రావాలని": 5194,
      "చదివి": 5195,
      "పాండ": 5196,
      "చేయబో": 5197,
      "యాలో": 5198,
      "ఆధ్": 5199,
      "అభిప్రాయం": 5200,
      "సన్నా": 5201,
      "హెచ్చరించారు": 5202,
      "నికీ": 5203,
      "దీక్ష": 5204,
      "సినిమాపై": 5205,
      "ప్రశ్నకు": 5206,
      "లైంగిక": 5207,
      "కర్నాటక": 5208,
      "బైక్": 5209,
      "సంఘటనలు": 5210,
      "కోరిక": 5211,
      "తొలు": 5212,
      "దాడిలో": 5213,
      "యూనివర్సిటీ": 5214,
      "ఎక్కి": 5215,
      "నలి": 5216,
      "అయోధ్య": 5217,
      "యాల్లో": 5218,
      "రథ": 5219,
      "ఖండ్": 5220,
      "కొన్న": 5221,
      "మించిన": 5222,
      "ప్రయాణికులు": 5223,
      "అనుకూలంగా": 5224,
      "స్థితిలో": 5225,
      "సిన్": 5226,
      "నియోజకవర్గా": 5227,
      "ఆకర్షణ": 5228,
      "బాయ్": 5229,
      "చేశామని": 5230,
      "ంచనుంది": 5231,
      "మిని": 5232,
      "తరచూ": 5233,
      "కూడదని": 5234,
      "విధాన": 5235,
      "శ్వరరావు": 5236,
      "గోల్": 5237,
      "ంకా": 5238,
      "సాగింది": 5239,
      "ప్రతిపాదన": 5240,
      "సర్కారు": 5241,
      "సాధించ": 5242,
      "చేసుకున్నాడు": 5243,
      "మంచు": 5244,
      "స్టులు": 5245,
      "విక": 5246,
      "మురు": 5247,
      "స్తోన్న": 5248,
      "క్లారిటీ": 5249,
      "అనారోగ్య": 5250,
      "కంగ": 5251,
      "త్మకంగా": 5252,
      "గుణ": 5253,
      "2023": 5254,
      "కనిపిస్తుంది": 5255,
      "ష్క": 5256,
      "గ్రామానికి": 5257,
      "ందాన్ని": 5258,
      "ప్రొడక్షన్": 5259,
      "బలహీన": 5260,
      "పవిత్ర": 5261,
      "ెర": 5262,
      "లైట్": 5263,
      "ఓట్ల": 5264,
      "వేసవి": 5265,
      "చేయటం": 5266,
      "ప్రియాంక": 5267,
      "ఊపిరి": 5268,
      "సభ్యులకు": 5269,
      "తెలుగుదేశం": 5270,
      "భై": 5271,
      "సంవత్సరాలు": 5272,
      "పారిశ్రామిక": 5273,
      "బదిలీ": 5274,
      "దుకా": 5275,
      "కోర": 5276,
      "కాల్పులు": 5277,
      "సమీపంలోని": 5278,
      "ధోనీ": 5279,
      "విదేశా": 5280,
      "ాలంటూ": 5281,
      "మాధ": 5282,
      "ార్జున": 5283,
      "నువ్": 5284,
      "చెట్టు": 5285,
      "కార్యాలయంలో": 5286,
      "ఎవ్": 5287,
      "కుక్క": 5288,
      "సమగ్ర": 5289,
      "కరించింది": 5290,
      "అటవీ": 5291,
      "అరవింద్": 5292,
      "స్మార్ట్": 5293,
      "కోపం": 5294,
      "జవాబు": 5295,
      "సగటు": 5296,
      "కలం": 5297,
      "రూపాయ": 5298,
      "ఒక్కరూ": 5299,
      "గార్": 5300,
      "భ్రా": 5301,
      "పిల్లలను": 5302,
      "ారన్న": 5303,
      "మిక్": 5304,
      "వాటా": 5305,
      "పేర్లు": 5306,
      "స్కూల్": 5307,
      "దక్క": 5308,
      "సత్": 5309,
      "సీమ": 5310,
      "గాన్ని": 5311,
      "చూద్దాం": 5312,
      "మేక్": 5313,
      "చ్చని": 5314,
      "పెను": 5315,
      "విదేశాంగ": 5316,
      "పడం": 5317,
      "మెట్రో": 5318,
      "ప్రియ": 5319,
      "చక్కగా": 5320,
      "రకర": 5321,
      "న్ల": 5322,
      "టంలో": 5323,
      "టప్పుడు": 5324,
      "డిస్": 5325,
      "మిడి": 5326,
      "షేక్": 5327,
      "చంపే": 5328,
      "మొబైల్": 5329,
      "మాల్": 5330,
      "డిప్యూ": 5331,
      "చేయకుండా": 5332,
      "కార్యాలయం": 5333,
      "వాన్": 5334,
      "విషమంగా": 5335,
      "నిందితుడు": 5336,
      "పాల్పడిన": 5337,
      "ఖర": 5338,
      "ఖై": 5339,
      "ఎన్డీ": 5340,
      "ఆధ్వర్యంలో": 5341,
      "దండ": 5342,
      "నాయకత్వం": 5343,
      "టమే": 5344,
      "జీవితాన్ని": 5345,
      "ఇజ": 5346,
      "ంత్రా": 5347,
      "పోవడంతో": 5348,
      "నెటి": 5349,
      "గౌరవి": 5350,
      "టుగా": 5351,
      "వాహనాలు": 5352,
      "నాలో": 5353,
      "మునకు": 5354,
      "సీటు": 5355,
      "బెయిల్": 5356,
      "పెరిగిన": 5357,
      "లింగ": 5358,
      "దారుణంగా": 5359,
      "చేరుకుంది": 5360,
      "తేలింది": 5361,
      "సిద్ధా": 5362,
      "ధ్యం": 5363,
      "దోహ": 5364,
      "అండగా": 5365,
      "తప్పుడు": 5366,
      "ఉన్నతా": 5367,
      "పత్రిక": 5368,
      "రకంగా": 5369,
      "అందమైన": 5370,
      "దగ్గరకు": 5371,
      "అందంగా": 5372,
      "బ్రిటన్": 5373,
      "హర్యా": 5374,
      "ంటున్నాయి": 5375,
      "ఉగ్రవాద": 5376,
      "శిశు": 5377,
      "క్రికెటర్": 5378,
      "కనె": 5379,
      "పనికి": 5380,
      "కచ్చితంగా": 5381,
      "మతులు": 5382,
      "రాకుండా": 5383,
      "వాళ్లకు": 5384,
      "ఇంద్ర": 5385,
      "స్మా": 5386,
      "తొలుత": 5387,
      "నేర్": 5388,
      "వరీ": 5389,
      "పడతాయి": 5390,
      "గ్రంథ": 5391,
      "గాల్": 5392,
      "ప్ట్": 5393,
      "గౌరవం": 5394,
      "కొరియా": 5395,
      "అభినంది": 5396,
      "కార్మికులు": 5397,
      "ధన్య": 5398,
      "క్షీ": 5399,
      "నాయక్": 5400,
      "పెట్టుబడులు": 5401,
      "భ్ర": 5402,
      "ఎంసీ": 5403,
      "వ్యవధి": 5404,
      "పదవికి": 5405,
      "కిరణ్": 5406,
      "..!": 5407,
      "లేవ": 5408,
      "వ్యవస్థను": 5409,
      "ఆధ్యాత్మిక": 5410,
      "వంశీ": 5411,
      "అధిగ": 5412,
      "ఇన్నింగ్స్": 5413,
      "మలయాళ": 5414,
      "గన్": 5415,
      "వుడు": 5416,
      "రీతిలో": 5417,
      "గెలిచిన": 5418,
      "నామ": 5419,
      "తేడాతో": 5420,
      "విరుచుకు": 5421,
      "పరస్ప": 5422,
      "ధనం": 5423,
      "నన్నారు": 5424,
      "బంతి": 5425,
      "లేను": 5426,
      "మోస": 5427,
      "బుద్ధి": 5428,
      "గ్రామం": 5429,
      "సమావేశానికి": 5430,
      "పాల్గొన్న": 5431,
      "ముప్పు": 5432,
      "సాడు": 5433,
      "వర్తన": 5434,
      "సాధించి": 5435,
      "నిలబడి": 5436,
      "ఉద్యమ": 5437,
      "టైన్": 5438,
      "శ్రీనివాస": 5439,
      "55": 5440,
      "టీ20": 5441,
      "సాఫీ": 5442,
      "శైలి": 5443,
      "సల్మాన్": 5444,
      "ఎస్ఐ": 5445,
      "ంటాం": 5446,
      "వాస్తవం": 5447,
      "పూజా": 5448,
      "డిప్యూటీ": 5449,
      "ఈయన": 5450,
      "పించి": 5451,
      "ఎక్": 5452,
      "భవన్": 5453,
      "శారీ": 5454,
      "త్తే": 5455,
      "పెరిగాయి": 5456,
      "ఆరుగురు": 5457,
      "గంగ": 5458,
      "డౌన్": 5459,
      "కార్తీ": 5460,
      "మృతు": 5461,
      "గల్": 5462,
      "మెన్": 5463,
      "అలరి": 5464,
      "గురైన": 5465,
      "దక్షిణాఫ్రికా": 5466,
      "ద్దని": 5467,
      "కమల్": 5468,
      "ప్రెస్": 5469,
      "పోయిందని": 5470,
      "బోధి": 5471,
      "దిల్": 5472,
      "ప్రతిభ": 5473,
      "మారుతి": 5474,
      "గరిష్ట": 5475,
      "వివరణ": 5476,
      "జినీ": 5477,
      "జొ": 5478,
      "గ్లో": 5479,
      "రాష్టప్రతి": 5480,
      "రాక": 5481,
      "ఏమిట": 5482,
      "రాయ్": 5483,
      "భారతదేశ": 5484,
      "సమస్యను": 5485,
      "తమ్ము": 5486,
      "సీరియ": 5487,
      "ఖరారు": 5488,
      "షన్ను": 5489,
      "ఐపీఎల్": 5490,
      "తగిలి": 5491,
      "లోపు": 5492,
      "అనుసం": 5493,
      "చనిపోయిన": 5494,
      "ఉత్పత్తు": 5495,
      "వడ": 5496,
      "జట్టులో": 5497,
      "మతం": 5498,
      "నెమ్మ": 5499,
      "అత్యవసర": 5500,
      "సాగ": 5501,
      "సమాజం": 5502,
      "సూచన": 5503,
      "పతాకంపై": 5504,
      "ఎత్తి": 5505,
      "దారుణ": 5506,
      "మనే": 5507,
      "ఇంట్": 5508,
      "సవాల్": 5509,
      "కున్నాయి": 5510,
      "ప్రజాస్వామ్య": 5511,
      "కుంభ": 5512,
      "విజే": 5513,
      "తెచ్చి": 5514,
      "ఆర్ఆర్": 5515,
      "అనిపించింది": 5516,
      "పసుపు": 5517,
      "బీమా": 5518,
      "గై": 5519,
      "మీరే": 5520,
      "ట్రే": 5521,
      "38": 5522,
      "ఎడి": 5523,
      "లేదో": 5524,
      "ప్రతినిధులు": 5525,
      "పనిలో": 5526,
      "బెనర్జీ": 5527,
      "న్యూజి": 5528,
      "వ్యాపారం": 5529,
      "దౌ": 5530,
      "బద్ద": 5531,
      "మెజ": 5532,
      "మెడ": 5533,
      "కంపెనీలు": 5534,
      "బ్రె": 5535,
      "ఛే": 5536,
      "కోట్లను": 5537,
      "కుండ": 5538,
      "బాలకృష్ణ": 5539,
      "గదిలో": 5540,
      "గుప్పి": 5541,
      "వాలో": 5542,
      "వాట్": 5543,
      "విడిచి": 5544,
      "సంప్రదా": 5545,
      "సంచలనం": 5546,
      "శక్": 5547,
      "ంచం": 5548,
      "తెలుసా": 5549,
      "కారణాల": 5550,
      "మంటలు": 5551,
      "డిజిటల్": 5552,
      "ఇశ్రా": 5553,
      "విశ్రా": 5554,
      "కలపాలి": 5555,
      "44": 5556,
      "స్తున్నట్టు": 5557,
      "భివృద్ధి": 5558,
      "అంతగా": 5559,
      "ఆఫర్": 5560,
      "కృతిక": 5561,
      "ఫీజు": 5562,
      "వాస్తవానికి": 5563,
      "పర్యాట": 5564,
      "షం": 5565,
      "స్యంగా": 5566,
      "కోర్సు": 5567,
      "భర్తీ": 5568,
      "మిలి": 5569,
      "ళ్లే": 5570,
      "కాయి": 5571,
      "కృతజ్ఞతలు": 5572,
      "క్రూ": 5573,
      "తీసుకెళ్ల": 5574,
      "చేసుకోవడం": 5575,
      "ఇంగ్లీ": 5576,
      "ల్లోనూ": 5577,
      "వర్ణి": 5578,
      "పర్యావరణ": 5579,
      "ఉచిత": 5580,
      "ంచుకోవాలని": 5581,
      "నిందితుల": 5582,
      "లోను": 5583,
      "ఇర": 5584,
      "అఖి": 5585,
      "ుని": 5586,
      ".....": 5587,
      "నటించింది": 5588,
      "డాక్టర్లు": 5589,
      "పంచాయతీ": 5590,
      "ంచేవారు": 5591,
      "పారే": 5592,
      "మొదటిసారి": 5593,
      "ఖాత": 5594,
      "విషయాలను": 5595,
      "యీ": 5596,
      "పెం": 5597,
      "తక్షణ": 5598,
      "పాలసీ": 5599,
      "ంచుకోండి": 5600,
      "బహుశా": 5601,
      "మెజారిటీ": 5602,
      "సంకే": 5603,
      "198": 5604,
      "లాగే": 5605,
      "శుభ్రం": 5606,
      "రిటై": 5607,
      "బిజి": 5608,
      "సైన్యం": 5609,
      "ఇందుకోసం": 5610,
      "క్రింద": 5611,
      "నాగార్జున": 5612,
      "ఎంపీలు": 5613,
      "వ్యక్తిని": 5614,
      "శివసేన": 5615,
      "సంయుక్తంగా": 5616,
      "ముడు": 5617,
      "సన్నివే": 5618,
      "34": 5619,
      "జారి": 5620,
      "ఢ్": 5621,
      "భూకం": 5622,
      "హౌస్": 5623,
      "అయిదు": 5624,
      "అధికారంలో": 5625,
      "ఉద్దేశి": 5626,
      "నిర్వాహ": 5627,
      "అదీ": 5628,
      "పూడి": 5629,
      "ఫ్లా": 5630,
      "దేవ్": 5631,
      "ంటున్నాను": 5632,
      "అదనంగా": 5633,
      "క్షతగాత్ర": 5634,
      "న్యూజిలాండ్": 5635,
      "లెక్కి": 5636,
      "పెట్టా": 5637,
      "పడటం": 5638,
      "జాబితా": 5639,
      "తెలిపాడు": 5640,
      "అవే": 5641,
      "అడిగా": 5642,
      "ులతో": 5643,
      "గంటల్లో": 5644,
      "న్యూస్": 5645,
      "తెలీ": 5646,
      "రాజీవ్": 5647,
      "నిర్మిస్తున్న": 5648,
      "సాంస్": 5649,
      "మునిగి": 5650,
      "ఆశా": 5651,
      "బన్": 5652,
      "జేడీ": 5653,
      "కారులో": 5654,
      "అంశాలను": 5655,
      "కిషన్": 5656,
      "జూలై": 5657,
      "రాశారు": 5658,
      "రూపం": 5659,
      "అశో": 5660,
      "తానే": 5661,
      "నోరు": 5662,
      "ప్రముఖులు": 5663,
      "ఆధారపడి": 5664,
      "పట్టుకుని": 5665,
      "అరి": 5666,
      "సమావేశాలు": 5667,
      "చార్య": 5668,
      "పెరిగే": 5669,
      "డిజైన్": 5670,
      "క్షా": 5671,
      "అంతకుముందు": 5672,
      "స్వాతంత్య్ర": 5673,
      "ప్రసంగి": 5674,
      "రాజకీయాల": 5675,
      "పండ": 5676,
      "అమరావ": 5677,
      "ఆస్తి": 5678,
      "ళా": 5679,
      "వును": 5680,
      "బీహార్": 5681,
      "వచ్చినా": 5682,
      "తున్నాం": 5683,
      "పోరు": 5684,
      "ఘటనలు": 5685,
      "విధానాన్ని": 5686,
      "నమోదైంది": 5687,
      "తెరకెక్కుతున్న": 5688,
      "నిత్యం": 5689,
      "వేలాది": 5690,
      "వేద": 5691,
      "తరచు": 5692,
      "పెట్టడం": 5693,
      "ంటాను": 5694,
      "ఉగ్రవాదులు": 5695,
      "ఆకట్టు": 5696,
      "చేసిందని": 5697,
      "కీల": 5698,
      "టెలి": 5699,
      "నిర్ణయాన్ని": 5700,
      "విభాగంలో": 5701,
      "మంత్రిగా": 5702,
      "అజయ్": 5703,
      "ఉరి": 5704,
      "హాల": 5705,
      "హాస్పి": 5706,
      "అడవి": 5707,
      "రాఘ": 5708,
      "సమయానికి": 5709,
      "ఇబ్బందు": 5710,
      "ఘోర": 5711,
      "మానా": 5712,
      "స్తుల": 5713,
      "ళ్లుగా": 5714,
      "దృష్టికి": 5715,
      "నిరంతరం": 5716,
      "మంటూ": 5717,
      "పోలీసులను": 5718,
      "భవిష్యత్తులో": 5719,
      "మట్టి": 5720,
      "ప్రాంతీయ": 5721,
      "సిస్": 5722,
      "అనుకో": 5723,
      "మారిన": 5724,
      "ఎప్పటికప్పుడు": 5725,
      "అలం": 5726,
      "లాభం": 5727,
      "దీప": 5728,
      "నిలదీ": 5729,
      "నిధి": 5730,
      "ఖాతా": 5731,
      "అభివృద్ధికి": 5732,
      "ాయితీ": 5733,
      "లబ్ధి": 5734,
      "చలి": 5735,
      "ధ్రు": 5736,
      "ందంటే": 5737,
      "తద్వారా": 5738,
      "ంట్రా": 5739,
      "మాట్లాడిన": 5740,
      "మృతదేహాలను": 5741,
      "దిద్దు": 5742,
      "2022": 5743,
      "కాదా": 5744,
      "పద్ధతి": 5745,
      "నరసింహ": 5746,
      "రీమేక్": 5747,
      "సమాజంలో": 5748,
      "పశు": 5749,
      "పింగ్": 5750,
      "అడగ": 5751,
      "జపాన్": 5752,
      "క్షమా": 5753,
      "అభినంద": 5754,
      "విలేఖ": 5755,
      "కల్పన": 5756,
      "మావోయి": 5757,
      "మోడల్": 5758,
      "పోలిస్తే": 5759,
      "2016": 5760,
      "బ్రేక్": 5761,
      "ఖరీ": 5762,
      "కుటుంబాలకు": 5763,
      "విభాగా": 5764,
      "తనని": 5765,
      "కోర్టుకు": 5766,
      "ఇశ్రాయే": 5767,
      "జడ్": 5768,
      "రాబో": 5769,
      "నిబంధనలు": 5770,
      "పెద్దలు": 5771,
      "నటిస్తోంది": 5772,
      "ంచుకోవచ్చు": 5773,
      "ఖు": 5774,
      "మ్మే": 5775,
      "జీలు": 5776,
      "ఆదిత్య": 5777,
      "ఫ్రెండ్": 5778,
      "ప్రగతి": 5779,
      "నిజమైన": 5780,
      "వైద్యం": 5781,
      "స్ర్తి": 5782,
      "రెన్స్": 5783,
      "తరలించి": 5784,
      "చనిపోయారు": 5785,
      "తీర్పును": 5786,
      "చీర": 5787,
      "అయ్యాడు": 5788,
      "ంచుకోవడానికి": 5789,
      "రెండూ": 5790,
      "ముగ్గురి": 5791,
      "నియోజకవర్గం": 5792,
      "ఆనంద్": 5793,
      "ౌండ్": 5794,
      "జరుగ": 5795,
      "మయిన": 5796,
      "2017": 5797,
      "పేపర్": 5798,
      "ఉన్నతాధి": 5799,
      "సందర్భంలో": 5800,
      "ఫోటోలు": 5801,
      "సుబ్బ": 5802,
      "గులా": 5803,
      "యాం": 5804,
      "పడుతూ": 5805,
      "ఇవే": 5806,
      "శ్యా": 5807,
      "పొందుతూ": 5808,
      "జ్యోతి": 5809,
      "ంటున్నాడు": 5810,
      "తెరకెక్కిన": 5811,
      "పబ్లిక్": 5812,
      "ఏజె": 5813,
      "గానికి": 5814,
      "ఉండటంతో": 5815,
      "వెంకట": 5816,
      "మత్": 5817,
      "లోకేష్": 5818,
      "పడుతోంది": 5819,
      "పిలుపునిచ్చారు": 5820,
      "గెలుపు": 5821,
      "పరీక్షి": 5822,
      "కనీస": 5823,
      "సమితి": 5824,
      "విశ్రాంతి": 5825,
      "ఖి": 5826,
      "షియం": 5827,
      "మాపక": 5828,
      "పాస్": 5829,
      "టీస్": 5830,
      "ఓపెన్": 5831,
      "జబ్బు": 5832,
      "దన్నారు": 5833,
      "హాని": 5834,
      "పట్నం": 5835,
      "సంద": 5836,
      "కొద్దీ": 5837,
      "పాయ": 5838,
      "ముఖ్యమంత్రిగా": 5839,
      "ఇండియాలో": 5840,
      "ఎరు": 5841,
      "ఏటా": 5842,
      "పొగ": 5843,
      "కొన్నిసార్లు": 5844,
      "దాస్": 5845,
      "కర్త": 5846,
      "వరంగల్": 5847,
      "బిల్": 5848,
      "కంలో": 5849,
      "బస్": 5850,
      "గర్వ": 5851,
      "తుందన్నారు": 5852,
      "స్టూ": 5853,
      "ఒలిం": 5854,
      "మీర": 5855,
      "న్యాయవాది": 5856,
      "చూస్తున్న": 5857,
      "జరగలేదు": 5858,
      "ఆరోగ్యానికి": 5859,
      "వేణు": 5860,
      "వైఖరి": 5861,
      "49": 5862,
      "లక్షలకు": 5863,
      "కాలుష": 5864,
      "బీభ": 5865,
      "స్థానాన్ని": 5866,
      "బెట్టి": 5867,
      "ప్రాంతాలకు": 5868,
      "ప్రేక్షకులు": 5869,
      "సంస్కృతి": 5870,
      "తడి": 5871,
      "అహ్మ": 5872,
      "సిద్ధి": 5873,
      "బరిలోకి": 5874,
      "విటమిన్": 5875,
      "రకరకాల": 5876,
      "ప్రచు": 5877,
      "ల్లోని": 5878,
      "రూపాయి": 5879,
      "చేరుకొని": 5880,
      "నమోదయ్యాయి": 5881,
      "వత్": 5882,
      "కాఫీ": 5883,
      "సహకారం": 5884,
      "సహాయక": 5885,
      "పరిణామ": 5886,
      "ఆకు": 5887,
      "డ్యా": 5888,
      "పోతాయి": 5889,
      "సాంస్కృతిక": 5890,
      "బంగా": 5891,
      "గఢ్": 5892,
      "రాకపో": 5893,
      "కోప": 5894,
      "2024": 5895,
      "కూర్చుని": 5896,
      "వివాదా": 5897,
      "ఇంది": 5898,
      "బయో": 5899,
      "బలోపే": 5900,
      "చెడు": 5901,
      "ల్లర్": 5902,
      "మహమ్మారి": 5903,
      "పరాజ": 5904,
      "అంతరి": 5905,
      "న్నో": 5906,
      "తుపా": 5907,
      "ఉక్రె": 5908,
      "తనకి": 5909,
      "ప్రతిపాది": 5910,
      "బెల్": 5911,
      "త్యు": 5912,
      "విమానం": 5913,
      "నెల్ల": 5914,
      "దీపా": 5915,
      "స్తామన్నారు": 5916,
      "తరపున": 5917,
      "అత్యధికంగా": 5918,
      "పచ్చి": 5919,
      "అసంత": 5920,
      "బిజీగా": 5921,
      "ప్య": 5922,
      "విప": 5923,
      "తీసిన": 5924,
      "పెరుగుతున్న": 5925,
      "వస్త్ర": 5926,
      "రఘు": 5927,
      "అతనిని": 5928,
      "పొందుతున్న": 5929,
      "లేవని": 5930,
      "పిచ్చి": 5931,
      "తనపై": 5932,
      "శ్వరి": 5933,
      "సంవత్సరంలో": 5934,
      "ప్రార్థ": 5935,
      "తికే": 5936,
      "సత్తా": 5937,
      "మాతృ": 5938,
      "టీచర్": 5939,
      "ప్రాంతాలు": 5940,
      "ేష్": 5941,
      "నియంత్రి": 5942,
      "ఐసీసీ": 5943,
      "తమవు": 5944,
      "మందులు": 5945,
      "ంతోనే": 5946,
      "వార్షి": 5947,
      "భవిష్యత్": 5948,
      "ంచబడిన": 5949,
      "వీర్": 5950,
      "రానుంది": 5951,
      "తోడ్": 5952,
      "తెలిపిన": 5953,
      "ంపజే": 5954,
      "సదస్సు": 5955,
      "ఔష": 5956,
      "కద": 5957,
      "విసి": 5958,
      "బినెట్": 5959,
      "లేకపోవడం": 5960,
      "సంతృప్తి": 5961,
      "మీది": 5962,
      "సమస్యల": 5963,
      "నమ్మక": 5964,
      "చింత": 5965,
      "రాష్ట్రాలకు": 5966,
      "పడలేదు": 5967,
      "ఉడికి": 5968,
      "ల్యూ": 5969,
      "ప్రత్యా": 5970,
      "పరిసర": 5971,
      "అవుతుందని": 5972,
      "వేత్తలు": 5973,
      "మానే": 5974,
      "కూలీ": 5975,
      "శశి": 5976,
      "యోగా": 5977,
      "బీజేపీలో": 5978,
      "నిమ్మ": 5979,
      "గాఢ": 5980,
      "వేయడం": 5981,
      "మాటల": 5982,
      "42": 5983,
      "పరిహారం": 5984,
      "ప్రభావితం": 5985,
      "ఒకప్పుడు": 5986,
      "అత్త": 5987,
      "గ్రామ్": 5988,
      "వీడియోను": 5989,
      "గ్రి": 5990,
      "చేయాల్సిన": 5991,
      "మమతా": 5992,
      "అడ్డ": 5993,
      "ట్లీ": 5994,
      "పొరుగు": 5995,
      "నోట్ల": 5996,
      "మౌళి": 5997,
      "అవా": 5998,
      "ఘనంగా": 5999,
      "ంతగా": 6000,
      "ముద్దు": 6001,
      "యోగి": 6002,
      "నిషేధి": 6003,
      "బిజినెస్": 6004,
      "లోగా": 6005,
      "స్పష్టత": 6006,
      "నిప్పు": 6007,
      "బాబా": 6008,
      "బాంబు": 6009,
      "చేసినట్టు": 6010,
      "సామర్థ్యం": 6011,
      "ఆకలి": 6012,
      "నమ్మి": 6013,
      "కర్నూ": 6014,
      "సహాయపడుతుంది": 6015,
      "సీసీఐ": 6016,
      "కాపాడ": 6017,
      "తీసుకుంటామని": 6018,
      "సదరు": 6019,
      "స్టై": 6020,
      "అత్యాచారం": 6021,
      "39": 6022,
      "ఓటీ": 6023,
      "పనిచేసే": 6024,
      "నిల్వ": 6025,
      "ఉక్రెయిన్": 6026,
      "అసో": 6027,
      "పూజలు": 6028,
      "ధన్యవాదాలు": 6029,
      "ప్రత్యామ్": 6030,
      "ఇక్కడే": 6031,
      "సరదా": 6032,
      "సాధించారు": 6033,
      "చేసుకోవాలని": 6034,
      "కథలు": 6035,
      "వాహనం": 6036,
      "వేర్వేరు": 6037,
      "కుంటున్నారు": 6038,
      "ఏర్పడిన": 6039,
      "అగ్నిమాపక": 6040,
      "దేవరకొండ": 6041,
      "ప్స్": 6042,
      "జట్టుకు": 6043,
      "చేశాం": 6044,
      "ముగిసింది": 6045,
      "చేందుకు": 6046,
      "బంతుల్లో": 6047,
      "కార్లు": 6048,
      "సన్నాహాలు": 6049,
      "జత": 6050,
      "వాడిని": 6051,
      "నెలకు": 6052,
      "అవుతున్నాయి": 6053,
      "అరుణ్": 6054,
      "టిక్కె": 6055,
      "ఖాతాలో": 6056,
      "మాలి": 6057,
      "రెస్పా": 6058,
      "హోటల్": 6059,
      "బియ్య": 6060,
      "తలుపు": 6061,
      "గుర్తించి": 6062,
      "సూచనలు": 6063,
      "మృత్యు": 6064,
      "కోల్పోయారు": 6065,
      "గ్యాస్": 6066,
      "యార్": 6067,
      "న్నాయని": 6068,
      "దూసుకు": 6069,
      "ప్రభావ": 6070,
      "ముగిసిన": 6071,
      "దుః": 6072,
      "పరిమా": 6073,
      "మూత": 6074,
      "డైనా": 6075,
      "పెంపు": 6076,
      "కలకలం": 6077,
      "సార్వ": 6078,
      "ఆలోచనలు": 6079,
      "ప్రొఫె": 6080,
      "నిందితులు": 6081,
      "పలుకు": 6082,
      "ధైర్యం": 6083,
      "రజనీ": 6084,
      "అసెంబ్లీలో": 6085,
      "చౌదరి": 6086,
      "అనుష్క": 6087,
      "అర్హత": 6088,
      "ప్రశ్నలకు": 6089,
      "కథానాయి": 6090,
      "ముందస్తు": 6091,
      "తీర్చి": 6092,
      "పరీక్షల": 6093,
      "పొందారు": 6094,
      "భారం": 6095,
      "తిరగ": 6096,
      "ప్రపంచంలోనే": 6097,
      "నివాస": 6098,
      "పూర్వకంగా": 6099,
      "ఇరవై": 6100,
      "చంప": 6101,
      "వాళ్లను": 6102,
      "కౌంట్": 6103,
      "ధన్": 6104,
      "భాషా": 6105,
      "శెట్టి": 6106,
      "తీష్": 6107,
      "సమంత": 6108,
      "కరమైన": 6109,
      "పుచ్చు": 6110,
      "సమూ": 6111,
      "లేకపోవడంతో": 6112,
      "శాసనసభ": 6113,
      "అసహ": 6114,
      "నను": 6115,
      "సెంట్ర": 6116,
      "ఇంజనీ": 6117,
      "అభ్యర్థుల": 6118,
      "హయా": 6119,
      "ఉండవు": 6120,
      "వచ్చిందని": 6121,
      "ప్రత్యర్": 6122,
      "కుంటారు": 6123,
      "బీసీసీఐ": 6124,
      "ఫామ్": 6125,
      "చేస్తున్నామని": 6126,
      "గడువు": 6127,
      "నాశనం": 6128,
      "విభాగం": 6129,
      "మరికొందరు": 6130,
      "లక్ష్యాన్ని": 6131,
      "క్యు": 6132,
      "బెస్ట్": 6133,
      "కేం": 6134,
      "పైనా": 6135,
      "సేవల": 6136,
      "బాలయ్య": 6137,
      "హృద": 6138,
      "రష్": 6139,
      "నెలా": 6140,
      "న్యాయమూర్": 6141,
      "జయంతి": 6142,
      "రాముడు": 6143,
      "ఇళ్లు": 6144,
      "కంటి": 6145,
      "సగం": 6146,
      "అందరినీ": 6147,
      "వాసన": 6148,
      "వారంతా": 6149,
      "నిర్మాణానికి": 6150,
      "స్టోరీ": 6151,
      "కామెంట్స్": 6152,
      "తెలివి": 6153,
      "ప్రాతి": 6154,
      "భయా": 6155,
      "స్వరూ": 6156,
      "పించిన": 6157,
      "సాగర్": 6158,
      "గెలిచి": 6159,
      "ఆహ": 6160,
      "బదు": 6161,
      "స్తాయని": 6162,
      "లక్ష్మ": 6163,
      "తప్పనిసరి": 6164,
      "ఎలక్ట్రిక్": 6165,
      "సైడ్": 6166,
      "గార": 6167,
      "జరీ": 6168,
      "రాక్ష": 6169,
      "నోటిఫి": 6170,
      "పలికి": 6171,
      "కోణంలో": 6172,
      "తానని": 6173,
      "క్కర్": 6174,
      "ఫాలో": 6175,
      "గతే": 6176,
      "పాక్షి": 6177,
      "హక్కుల": 6178,
      "ఇచ్చా": 6179,
      "పూట": 6180,
      "అడిగి": 6181,
      "పగ": 6182,
      "గ్రాండ్": 6183,
      "ఆవిడ": 6184,
      "ఓపెనర్": 6185,
      "సందీ": 6186,
      "వేంద్ర": 6187,
      "వెయ్యి": 6188,
      "హరీష్": 6189,
      "ఈవెంట్": 6190,
      "ఇదీ": 6191,
      "బాదు": 6192,
      "పేర్కొన్న": 6193,
      "ప్రేక్షకులను": 6194,
      "వశా": 6195,
      "కామ": 6196,
      "గుల్": 6197,
      "గాలని": 6198,
      "ఎంతగానో": 6199,
      "చెందాడు": 6200,
      "జరిమానా": 6201,
      "జోక్యం": 6202,
      "ంపియన్": 6203,
      "పోల": 6204,
      "చుకున్న": 6205,
      "పొందే": 6206,
      "కామెడీ": 6207,
      "మీదుగా": 6208,
      "ధాన్ని": 6209,
      "హత్యకు": 6210,
      "కర్ర": 6211,
      "తల్లిదండ్రుల": 6212,
      "సెంట్రల్": 6213,
      "ఇపుడు": 6214,
      "యేషన్": 6215,
      "నోటీసులు": 6216,
      "క్టరీ": 6217,
      "ప్రకటనలో": 6218,
      "రచయిత": 6219,
      "నాగే": 6220,
      "ప్రాణం": 6221,
      "గురవు": 6222,
      "వెంకయ్య": 6223,
      "తోట": 6224,
      "సుకుని": 6225,
      "భారత్కు": 6226,
      "క్రీస్తు": 6227,
      "ులుగా": 6228,
      "ఉద్యోగుల": 6229,
      "చాటు": 6230,
      "ఇంతవరకు": 6231,
      "స్నేహితులు": 6232,
      "నెమ్మదిగా": 6233,
      "మిశ్ర": 6234,
      "నిర్ధారణ": 6235,
      "ఏమిటో": 6236,
      "బ్య": 6237,
      "సమాచారాన్ని": 6238,
      "తరచుగా": 6239,
      "యంగ్": 6240,
      "సింధ": 6241,
      "రాను": 6242,
      "పడిపోయింది": 6243,
      "స్వాగతం": 6244,
      "కళ్ల": 6245,
      "ూరి": 6246,
      "రాబాద్": 6247,
      "సుజు": 6248,
      "మహీ": 6249,
      "రక్తం": 6250,
      "విభే": 6251,
      "రెగ్య": 6252,
      "కనిపించడం": 6253,
      "కార్యక్రమాన్ని": 6254,
      "నిమిషాల": 6255,
      "మవుతోంది": 6256,
      "అధిగమి": 6257,
      "అంశాన్ని": 6258,
      "భారత్లో": 6259,
      "చేస్తాం": 6260,
      "ప్రభుత్వంపై": 6261,
      "మనసులో": 6262,
      "నంబర్": 6263,
      "మనస్సు": 6264,
      "గందర": 6265,
      "కుదర": 6266,
      "ంటున్నారా": 6267,
      "యులకు": 6268,
      "థ్రి": 6269,
      "పిక్స్": 6270,
      "సులభంగా": 6271,
      "సందీప్": 6272,
      "ధ్యక్ష": 6273,
      "ఢిల్లీలోని": 6274,
      "ఒకేసారి": 6275,
      "లేడు": 6276,
      "మ్మం": 6277,
      "చారానికి": 6278,
      "మామ": 6279,
      "ఆకాం": 6280,
      "లాయి": 6281,
      "గెట్": 6282,
      "విశ్లే": 6283,
      "వివాద": 6284,
      "మున్సిపల్": 6285,
      "హారి": 6286,
      "లావా": 6287,
      "స్మి": 6288,
      "వికెట్ల": 6289,
      "సిబి": 6290,
      "కానున్న": 6291,
      "కొట్టే": 6292,
      "పాయింట్ల": 6293,
      "దృశ్య": 6294,
      "నియోజకవర్గంలో": 6295,
      "రాధ": 6296,
      "నెంబర్": 6297,
      "బీఐ": 6298,
      "పదవీ": 6299,
      "సత్యనారాయణ": 6300,
      "గందరగో": 6301,
      "కుమార": 6302,
      "బాహు": 6303,
      "సమన్": 6304,
      "ప్రకాష్": 6305,
      "పేలుడు": 6306,
      "సుదీర్ఘ": 6307,
      "చక్కెర": 6308,
      "ప్రశాంత్": 6309,
      "నెటిజన్": 6310,
      "ద్వి": 6311,
      "టాస్": 6312,
      "లైఫ్": 6313,
      "కాను": 6314,
      "పేరి": 6315,
      "ఒక్కసారి": 6316,
      "పదు": 6317,
      "ంటరీ": 6318,
      "శ్య": 6319,
      "బీర్": 6320,
      "విచారణలో": 6321,
      "చెప్పుకొచ్చారు": 6322,
      "చెందింది": 6323,
      "ప్రాతిపది": 6324,
      "రోల్": 6325,
      "వాదనలు": 6326,
      "ఆడిన": 6327,
      "రహదారి": 6328,
      "డాడు": 6329,
      "అంకి": 6330,
      "దొక": 6331,
      "సామాన్": 6332,
      "ైతే": 6333,
      "క్లో": 6334,
      "పీసీసీ": 6335,
      "ప్రారంభించిన": 6336,
      "కాల్పుల్లో": 6337,
      "కష్టాలు": 6338,
      "ప్లాస్టిక్": 6339,
      "భవనం": 6340,
      "పదార్థాలు": 6341,
      "ారంటూ": 6342,
      "సునీల్": 6343,
      "తీస్": 6344,
      "రెడ్": 6345,
      "చేస్తుందని": 6346,
      "స్క్రీన్": 6347,
      "విభిన్న": 6348,
      "గురై": 6349,
      "అతడికి": 6350,
      "పేరును": 6351,
      "ఆలయంలో": 6352,
      "ఊరి": 6353,
      "ంచబడ": 6354,
      "రాజమౌళి": 6355,
      "వీటికి": 6356,
      "డైరెక్ట్": 6357,
      "తిరుపతి": 6358,
      "సారా": 6359,
      "కారును": 6360,
      "వాడే": 6361,
      "జీల": 6362,
      "నీటితో": 6363,
      "కూర్చో": 6364,
      "సహో": 6365,
      "నిస్": 6366,
      "మిల": 6367,
      "కార్పొరేషన్": 6368,
      "అయ్యి": 6369,
      "కరా": 6370,
      "వాన": 6371,
      "వాహనాల": 6372,
      "సంప్రదాయ": 6373,
      "చారిత్ర": 6374,
      "ంజు": 6375,
      "పాలనలో": 6376,
      "అంటు": 6377,
      "ప్రాంతానికి": 6378,
      "స్థానాలకు": 6379,
      "పరిమితం": 6380,
      "రెస్పాన్స్": 6381,
      "పునరుద్ధ": 6382,
      "ఆంగ్": 6383,
      "కత": 6384,
      "మగ్": 6385,
      "కాలనీ": 6386,
      "ఉదాహరణకు": 6387,
      "బాధితురాలి": 6388,
      "జమ": 6389,
      "దుండ": 6390,
      "అనుమాన": 6391,
      "గొండ": 6392,
      "ఎల్లప్పుడూ": 6393,
      "సంకల్": 6394,
      "అంబా": 6395,
      "సంస్కరణ": 6396,
      "మొత్తంలో": 6397,
      "250": 6398,
      "ఆక్సి": 6399,
      "కునేందుకు": 6400,
      "చిట్": 6401,
      "వున్నారు": 6402,
      "ల్లోనే": 6403,
      "ఘటనకు": 6404,
      "డ్రగ్స్": 6405,
      "సన్నిహి": 6406,
      "దేవీ": 6407,
      "పెద": 6408,
      "విజన్": 6409,
      "ఇంజన్": 6410,
      "సభ్యుడు": 6411,
      "ఆలస్యం": 6412,
      "లోపలికి": 6413,
      "సెలవు": 6414,
      "క్రెడి": 6415,
      "క్షమాపణ": 6416,
      "సిఆర్": 6417,
      "కాంట్రా": 6418,
      "ఆయనతో": 6419,
      "పుష్ప": 6420,
      "అడుగుల": 6421,
      "ఓటర్": 6422,
      "ంటారా": 6423,
      "కొందరి": 6424,
      "లేదంటే": 6425,
      "కౌన్సి": 6426,
      "కళ్లు": 6427,
      "చమురు": 6428,
      "వీధి": 6429,
      "శుద్ధి": 6430,
      "గూడ": 6431,
      "గ్రౌండ్": 6432,
      "అన్నింటి": 6433,
      "ప్రోత్": 6434,
      "మెదడు": 6435,
      "కోరింది": 6436,
      "అంబే": 6437,
      "మత్తు": 6438,
      "రెండి": 6439,
      "2021": 6440,
      "వెర్": 6441,
      "యంత్రా": 6442,
      "కీలకమైన": 6443,
      "ఆత్మహత్యకు": 6444,
      "మసీ": 6445,
      "తినే": 6446,
      "చెందగా": 6447,
      "ఉత్తర్వులు": 6448,
      "బాక్సాఫీ": 6449,
      "జరిగితే": 6450,
      "సమాజా": 6451,
      "ప్రార్": 6452,
      "క్లిష్ట": 6453,
      "గతేడాది": 6454,
      "ఊరు": 6455,
      "జరప": 6456,
      "రూమ్": 6457,
      "పరిగణ": 6458,
      "2015": 6459,
      "పనిచేశారు": 6460,
      "చీకటి": 6461,
      "ఇవ్వలేదు": 6462,
      "యువకుడు": 6463,
      "అడుగులు": 6464,
      "మూరి": 6465,
      "నెల్లూరు": 6466,
      "కాడ": 6467,
      "పౌరస": 6468,
      "వ్యాయామం": 6469,
      "ఆశీర్": 6470,
      "ుడి": 6471,
      "మొహ": 6472,
      "తెలియజేశారు": 6473,
      "విలేఖరు": 6474,
      "ముచ్చ": 6475,
      "సొమ్ము": 6476,
      "అడిగిన": 6477,
      "ధోరణి": 6478,
      "సీరియస్": 6479,
      "స్క్రి": 6480,
      "ంచబడుతుంది": 6481,
      "చుకో": 6482,
      "నాలుగే": 6483,
      "నిశ్చ": 6484,
      "చిత్రాల్లో": 6485,
      "రావడానికి": 6486,
      "కొరకు": 6487,
      "పనితీరు": 6488,
      "సమీక్ష": 6489,
      "56": 6490,
      "వార్డు": 6491,
      "ధీమా": 6492,
      "రవీంద్ర": 6493,
      "స్తి": 6494,
      "పడతారు": 6495,
      "స్నేహితు": 6496,
      "సంరక్షణ": 6497,
      "నలుగురి": 6498,
      "విగ్ర": 6499,
      "మారాయి": 6500,
      "సమ్మె": 6501,
      "ఏకా": 6502,
      "టార్గెట్": 6503,
      "46": 6504,
      "నిఘా": 6505,
      "సేవి": 6506,
      "పుస్తకాలు": 6507,
      "అగర్": 6508,
      "ఎద్": 6509,
      "రచన": 6510,
      "రాసి": 6511,
      "స్తారో": 6512,
      "ఉత్కంఠ": 6513,
      "టిడిపి": 6514,
      "త్రివిక్రమ్": 6515,
      "వహించిన": 6516,
      "సైనికులు": 6517,
      "మింగ్": 6518,
      "మేమి": 6519,
      "తప్పదు": 6520,
      "పథకాల": 6521,
      "నకిలీ": 6522,
      "నోటిఫికేషన్": 6523,
      "దను": 6524,
      "సరా": 6525,
      "వ్యవసాయం": 6526,
      "సరిపో": 6527,
      "అతిథి": 6528,
      "ఉంటాయని": 6529,
      "ప్రెసి": 6530,
      "పలికారు": 6531,
      "అర్హ": 6532,
      "మరింతగా": 6533,
      "బంధువులు": 6534,
      "విసు": 6535,
      "మ్రాన్": 6536,
      "ండో": 6537,
      "బిలియన్": 6538,
      "పడుతుందని": 6539,
      "వ్యవహారాల": 6540,
      "మొట్ట": 6541,
      "ఇలాగే": 6542,
      "నీటిలో": 6543,
      "బ్రాండ్": 6544,
      "ుల్లో": 6545,
      "ంచలేదని": 6546,
      "ందించిన": 6547,
      "నాతో": 6548,
      "ందుకే": 6549,
      "తగినంత": 6550,
      "పరిణామాలు": 6551,
      "కుర్": 6552,
      "తేజ్": 6553,
      "హాసన్": 6554,
      "మరణించిన": 6555,
      "విభజి": 6556,
      "కలో": 6557,
      "సైకిల్": 6558,
      "సుజుకి": 6559,
      "మొన్న": 6560,
      "పంప": 6561,
      "కారణమని": 6562,
      "ఉండండి": 6563,
      "ఫిల్మ్": 6564,
      "అనుసంధా": 6565,
      "దేశాలలో": 6566,
      "చుకుని": 6567,
      "కవిత": 6568,
      "దాల్": 6569,
      "చెక్": 6570,
      "బంతులు": 6571,
      "కంప్యూ": 6572,
      "విధించింది": 6573,
      "జరగనుంది": 6574,
      "ఆయనే": 6575,
      "ఒడిశా": 6576,
      "పేరిట": 6577,
      "మయ": 6578,
      "వున్నా": 6579,
      "ప్రాధాన్యం": 6580,
      "ఏదీ": 6581,
      "దాదాపుగా": 6582,
      "పరిశోధ": 6583,
      "క్ష్": 6584,
      "చేయనున్న": 6585,
      "దేశీయ": 6586,
      "డిపాజి": 6587,
      "హాన్": 6588,
      "చిత్రీకరి": 6589,
      "ప్రమాదానికి": 6590,
      "తమిళంలో": 6591,
      "తప్పనిసరిగా": 6592,
      "రుజు": 6593,
      "కెన": 6594,
      "కావాల్సిన": 6595,
      "ఆధార్": 6596,
      "అఫ్": 6597,
      "సహి": 6598,
      "విచిత్ర": 6599,
      "కాండ": 6600,
      "బ్యాట్స్": 6601,
      "చారిత్రక": 6602,
      "సాధించాడు": 6603,
      "జర్నలి": 6604,
      "దురా": 6605,
      "ఉన్నప్పటికీ": 6606,
      "రేఖ": 6607,
      "షియా": 6608,
      "నైట్": 6609,
      "ప్రశంసలు": 6610,
      "ఇన్స్": 6611,
      "ఊర": 6612,
      "పార్క్": 6613,
      "విడుదలకు": 6614,
      "జర్స్": 6615,
      "జూనియర్": 6616,
      "నిర్దేశి": 6617,
      "నమూ": 6618,
      "టైమ్": 6619,
      "ఎంటర్టైన్": 6620,
      "కరీం": 6621,
      "ఏమ": 6622,
      "పెరుగుతోంది": 6623,
      "నిందితుడిని": 6624,
      "నిషేధం": 6625,
      "ేయ": 6626,
      "తిప్పి": 6627,
      "చెప్పలేదు": 6628,
      "వ్యాక్సి": 6629,
      "ప్రీమి": 6630,
      "వైఎస్ఆర్": 6631,
      "ధూ": 6632,
      "మరె": 6633,
      "్రూ": 6634,
      "కొట్టుకు": 6635,
      "గించి": 6636,
      "సాఫ్ట్": 6637,
      "భాస్": 6638,
      "చేస్తానని": 6639,
      "ఆకాశ": 6640,
      "మొత్తాన్ని": 6641,
      "కొన్నా": 6642,
      "క్షంలో": 6643,
      "బియా": 6644,
      "గంగా": 6645,
      "దిక్కు": 6646,
      "యువకులు": 6647,
      "నటులు": 6648,
      "బ్రిటీ": 6649,
      "58": 6650,
      "బలోపేతం": 6651,
      "అదృష్ట": 6652,
      "పండ్లు": 6653,
      "విప్ల": 6654,
      "పెడితే": 6655,
      "సానికి": 6656,
      "కపోవచ్చు": 6657,
      "రాజకీయం": 6658,
      "ాన": 6659,
      "క్రమణ": 6660,
      "పాత్రను": 6661,
      "కుదు": 6662,
      "సాహం": 6663,
      "భామ": 6664,
      "ద్దీన్": 6665,
      "బ్యూటీ": 6666,
      "దీపావళి": 6667,
      "చ్చె": 6668,
      "వేసుకుని": 6669,
      "ప్రజల్లో": 6670,
      "పరిస్థితుల": 6671,
      "ఆధారాలు": 6672,
      "వీరిద్దరూ": 6673,
      "మీటర్లు": 6674,
      "రకమైన": 6675,
      "విషాద": 6676,
      "తొందర": 6677,
      "బ్బరి": 6678,
      "ఉంటాడు": 6679,
      "జంటగా": 6680,
      "నటీ": 6681,
      "తీర్చు": 6682,
      "వివాదాస్పద": 6683,
      "ఓటీటీ": 6684,
      "కుండానే": 6685,
      "ఉల్లంఘి": 6686,
      "ప్రత్యర్థి": 6687,
      "ఫార": 6688,
      "డింది": 6689,
      "లిత": 6690,
      "లాన్ని": 6691,
      "నీయంగా": 6692,
      "టేబుల్": 6693,
      "రామచంద్ర": 6694,
      "57": 6695,
      "క్వి": 6696,
      "ాల్లోకి": 6697,
      "సమీక్షి": 6698,
      "అభ్యర్థిగా": 6699,
      "హర్యానా": 6700,
      "పెంపొంది": 6701,
      "రసం": 6702,
      "వేటు": 6703,
      "గేమ్": 6704,
      "తెలియాల్సి": 6705,
      "ప్రవేశం": 6706,
      "ఎదుర్కొంటున్న": 6707,
      "మౌలిక": 6708,
      "క్రెడిట్": 6709,
      "మరే": 6710,
      "వహించారు": 6711,
      "ఆఫీసర్": 6712,
      "వలెను": 6713,
      "నేతృత్వంలోని": 6714,
      "అశోక్": 6715,
      "శవ": 6716,
      "కాకు": 6717,
      "ముఖా": 6718,
      "అనుమానాలు": 6719,
      "తరగ": 6720,
      "ఉత్సాహ": 6721,
      "తేలిక": 6722,
      "లారీ": 6723,
      "పొందింది": 6724,
      "ఒంటరిగా": 6725,
      "కొబ్బరి": 6726,
      "చూప": 6727,
      "పథకాలు": 6728,
      "ందంటూ": 6729,
      "ఒక్కటే": 6730,
      "హెడ్": 6731,
      "ఆరోగ్యంగా": 6732,
      "చెరువు": 6733,
      "ంపులకు": 6734,
      "మూడవ": 6735,
      "అనుభవ": 6736,
      "మైదా": 6737,
      "గ్రాముల": 6738,
      "ప్రారంభమైంది": 6739,
      "నిరోధి": 6740,
      "వేస్తున్నారు": 6741,
      "వివరాల": 6742,
      "షార్": 6743,
      "చెబుతోంది": 6744,
      "గాలింపు": 6745,
      "పాయింట్లు": 6746,
      "సత్యం": 6747,
      "హల్": 6748,
      "రిటీ": 6749,
      "విల్": 6750,
      "లేము": 6751,
      "కలగ": 6752,
      "దోపి": 6753,
      "బాధిత": 6754,
      "చంద": 6755,
      "తలో": 6756,
      "వానీ": 6757,
      "వేగం": 6758,
      "నిర్లక్ష్యం": 6759,
      "సమ్మ": 6760,
      "లోతు": 6761,
      "అద్దె": 6762,
      "్రో": 6763,
      "టీం": 6764,
      "కపోవ": 6765,
      "సంతోషం": 6766,
      "భ్రాంతి": 6767,
      "నాది": 6768,
      "రేంజ్": 6769,
      "ులైన": 6770,
      "ఆసుపత్ర": 6771,
      "జట్లు": 6772,
      "కాసేపు": 6773,
      "పుల": 6774,
      "పునర్": 6775,
      "తేల్చి": 6776,
      "కలర్": 6777,
      "ళ్లతో": 6778,
      "తినడం": 6779,
      "జైట్లీ": 6780,
      "ప్రారంభించింది": 6781,
      "ప్రక్క": 6782,
      "ఆర్ధిక": 6783,
      "ఒప్పంద": 6784,
      "రమణ": 6785,
      "మ్మని": 6786,
      "ణికి": 6787,
      "అలానే": 6788,
      "పడుతున్నాయి": 6789,
      "సంఘాలు": 6790,
      "ర్షి": 6791,
      "ంచక": 6792,
      "చేయడంలో": 6793,
      "మస": 6794,
      "లభ్య": 6795,
      "ెం": 6796,
      "అప్పుడ": 6797,
      "ఫ్రాన్స్": 6798,
      "43": 6799,
      "థం": 6800,
      "ప్రవ": 6801,
      "పోసి": 6802,
      "నెహ": 6803,
      "పర్యాటక": 6804,
      "సందడి": 6805,
      "డారు": 6806,
      "కుల్": 6807,
      "స్పృ": 6808,
      "ఉపసం": 6809,
      "నాయకుల": 6810,
      "క్రియేషన్స్": 6811,
      "ఉంచి": 6812,
      "వంగ": 6813,
      "వైవి": 6814,
      "బంధి": 6815,
      "సమాధాన": 6816,
      "కింగ్స్": 6817,
      "ఆదాయ": 6818,
      "52": 6819,
      "బండ": 6820,
      "రూపొందించిన": 6821,
      "అబ్దు": 6822,
      "సందర్భాల్లో": 6823,
      "స్నేహ": 6824,
      "మొత్తంగా": 6825,
      "కదిలి": 6826,
      "చెల్లె": 6827,
      "క్కీ": 6828,
      "హయాంలో": 6829,
      "ఈశా": 6830,
      "ఎపి": 6831,
      "రిన": 6832,
      "ప్రతిపక్షాలు": 6833,
      "తిరస్కరి": 6834,
      "తగ్గింది": 6835,
      "జిల్లాల": 6836,
      "తాలి": 6837,
      "కలిగింది": 6838,
      "సభకు": 6839,
      "రకం": 6840,
      "గొట్టి": 6841,
      "నిరాకరి": 6842,
      "మార్గంలో": 6843,
      "ధ్వంసం": 6844,
      "వేయాలని": 6845,
      "41": 6846,
      "కాలుగా": 6847,
      "పోతూ": 6848,
      "సాక్షి": 6849,
      "ప్రపంచకప్": 6850,
      "అనూహ్య": 6851,
      "విడా": 6852,
      "తమను": 6853,
      "లేకపోయారు": 6854,
      "కోల్పోయిన": 6855,
      "మొత్తానికి": 6856,
      "ఐఏ": 6857,
      "వ్యాప్తి": 6858,
      "ఘనత": 6859,
      "ఆదర్శ": 6860,
      "రసా": 6861,
      "అందుకుంది": 6862,
      "మినహాయింపు": 6863,
      "లిమిటెడ్": 6864,
      "జరుగుతుందని": 6865,
      "త్యాన్ని": 6866,
      "62": 6867,
      "ట్ను": 6868,
      "రాగానే": 6869,
      "గంటలు": 6870,
      "పాన్ని": 6871,
      "తెల్లవారు": 6872,
      "ఇస్తే": 6873,
      "మెప్పి": 6874,
      "దూసు": 6875,
      "ఉండేలా": 6876,
      "గురయ్యారు": 6877,
      "మాస్టర్": 6878,
      "జియో": 6879,
      "భరో": 6880,
      "దుష్": 6881,
      "అందించే": 6882,
      "ల్తా": 6883,
      "కీర్": 6884,
      "చెప్పవచ్చు": 6885,
      "ఆయుధ": 6886,
      "ఉచితంగా": 6887,
      "దురదృష్ట": 6888,
      "ఆమ్": 6889,
      "అనుకూల": 6890,
      "బ్యాంకులు": 6891,
      "370": 6892,
      "కంట్ర": 6893,
      "చాయి": 6894,
      "రకాలు": 6895,
      "జీవనం": 6896,
      "బరిలో": 6897,
      "తాత్కాలిక": 6898,
      "మాఫీ": 6899,
      "టలు": 6900,
      "ఫ్రీ": 6901,
      "్మ": 6902,
      "జరగడం": 6903,
      "క్రైస్తవ": 6904,
      "వాసు": 6905,
      "శిక్షి": 6906,
      "త్రిక": 6907,
      "కర్నూలు": 6908,
      "కరీంనగర్": 6909,
      "అబద్ధ": 6910,
      "దార": 6911,
      "చెయ్యి": 6912,
      "బౌలింగ్లో": 6913,
      "సురక్షితంగా": 6914,
      "ఇత": 6915,
      "గడ్": 6916,
      "యాలి": 6917,
      "స్కు": 6918,
      "పేందుకు": 6919,
      "నిర్ణయించింది": 6920,
      "చొర": 6921,
      "క్కే": 6922,
      "విది": 6923,
      "శరీరంలో": 6924,
      "ప్రచురి": 6925,
      "అణ": 6926,
      "అడు": 6927,
      "ఆంక్షలు": 6928,
      "కొంది": 6929,
      "ప్రచారంలో": 6930,
      "సచిన్": 6931,
      "ఏను": 6932,
      "నల": 6933,
      "వింగ్": 6934,
      "సిపి": 6935,
      "పర్వత": 6936,
      "క్రియ": 6937,
      "డాలర్": 6938,
      "సిఫార్": 6939,
      "స్వీకారం": 6940,
      "అస్సలు": 6941,
      "ంటారని": 6942,
      "పెంచే": 6943,
      "ఎంకే": 6944,
      "హెగ్": 6945,
      "ప్రశంసి": 6946,
      "ఎద్దేవా": 6947,
      "డార్": 6948,
      "రుణాలు": 6949,
      "పరిరక్షణ": 6950,
      "టాలు": 6951,
      "రాత్ర": 6952,
      "రాధా": 6953,
      "శిబి": 6954,
      "నెలలు": 6955,
      "సేవలను": 6956,
      "ప్రయాణ": 6957,
      "కొనసాగుతున్న": 6958,
      "పురుషుల": 6959,
      "600": 6960,
      "పొలి": 6961,
      "జన్మి": 6962,
      "మొదలె": 6963,
      "సందేహం": 6964,
      "నివారణ": 6965,
      "త్తీస్": 6966,
      "ప్రతికూల": 6967,
      "కస్టమర్": 6968,
      "అగర్వాల్": 6969,
      "వాలా": 6970,
      "నివ్వ": 6971,
      "సేకరణ": 6972,
      "పడకుండా": 6973,
      "నవీన్": 6974,
      "వొ": 6975,
      "ప్రాతిని": 6976,
      "యుడి": 6977,
      "ఉన్నాను": 6978,
      "గౌత": 6979,
      "చుకుంది": 6980,
      "భూమిని": 6981,
      "క్రేజ్": 6982,
      "మొహం": 6983,
      "ఆశించిన": 6984,
      "శత": 6985,
      "తోన్న": 6986,
      "ఆర్టికల్": 6987,
      "నెరవేర్": 6988,
      "కాకపోతే": 6989,
      "పరిస్థితులను": 6990,
      "గీత": 6991,
      "సెక్ర": 6992,
      "మహేంద్ర": 6993,
      "ఇంటర్నెట్": 6994,
      "అమాయ": 6995,
      "డానికే": 6996,
      "సినిమాలకు": 6997,
      "కుమారులు": 6998,
      "ఫలితాలను": 6999,
      "అయన": 7000,
      "నిర్మాతగా": 7001,
      "సాహిత్య": 7002,
      "కుర": 7003,
      "నగరాల్లో": 7004,
      "వ్యాపి": 7005,
      "కైక": 7006,
      "ఎప్పటికీ": 7007,
      "షారు": 7008,
      "వ్యాపారు": 7009,
      "మారిపోయింది": 7010,
      "రంగాల్లో": 7011,
      "ఆనంది": 7012,
      "జారు": 7013,
      "డల": 7014,
      "నడుపు": 7015,
      "కైవ": 7016,
      "టిగా": 7017,
      "ఆసక్తిగా": 7018,
      "సానుభూతి": 7019,
      "నవ్వి": 7020,
      "స్నానం": 7021,
      "బాక్సాఫీస్": 7022,
      "చిత్రీకరణ": 7023,
      "అప్పగించారు": 7024,
      "అన్యాయం": 7025,
      "ప్రవర్తన": 7026,
      "మార్క్": 7027,
      "స్తున్నాయని": 7028,
      "రామయ్య": 7029,
      "పనిచేస్తున్న": 7030,
      "నిలబె": 7031,
      "వెల్లుల్లి": 7032,
      "ందేమో": 7033,
      "ఉపశ": 7034,
      "వెళ్తున్న": 7035,
      "దళిత": 7036,
      "సిఎం": 7037,
      "సెక": 7038,
      "మనల్ని": 7039,
      "ఉంచు": 7040,
      "విగ్రహం": 7041,
      "సెక్స్": 7042,
      "అవుట్": 7043,
      "అవుతున్న": 7044,
      "గడుపు": 7045,
      "ణులు": 7046,
      "నీళ్ళు": 7047,
      "వారె": 7048,
      "భయంతో": 7049,
      "వరకే": 7050,
      "77": 7051,
      "టల": 7052,
      "నిధులను": 7053,
      "ాలీ": 7054,
      "రోజ": 7055,
      "పురి": 7056,
      "నుడు": 7057,
      "కానిస్టే": 7058,
      "రుణం": 7059,
      "పోగా": 7060,
      "మేఘ": 7061,
      "ఉద్యోగా": 7062,
      "దేశంలోనే": 7063,
      "టైం": 7064,
      "బహుమతి": 7065,
      "పోల్": 7066,
      "వీల్": 7067,
      "స్థానానికి": 7068,
      "నివాసం": 7069,
      "ఆదరణ": 7070,
      "యాలకు": 7071,
      "ర్యాం": 7072,
      "భౌతిక": 7073,
      "అమె": 7074,
      "మటి": 7075,
      "వదులు": 7076,
      "ముక్కు": 7077,
      "కెన్": 7078,
      "వారంలో": 7079,
      "ముగింపు": 7080,
      "ఆన్లైన్": 7081,
      "విపరీతంగా": 7082,
      "కాంతి": 7083,
      "సెక్యూ": 7084,
      "అంతర్గత": 7085,
      "పరిశీలించారు": 7086,
      "దర్శకుడిగా": 7087,
      "హాస్పిటల్": 7088,
      "అజిత్": 7089,
      "ఖమ్మం": 7090,
      "నేరం": 7091,
      "యాన్": 7092,
      "కలిగే": 7093,
      "కుటుంబంలో": 7094,
      "అభ్యంతరం": 7095,
      "ఫుడ్": 7096,
      "అప్రమత్తంగా": 7097,
      "వీరిద్దరి": 7098,
      "ఇరాన్": 7099,
      "ఇరువు": 7100,
      "నితిన్": 7101,
      "ర్లో": 7102,
      "యింట్": 7103,
      "కాన": 7104,
      "సామ్రా": 7105,
      "59": 7106,
      "దిగ్గ": 7107,
      "మేధా": 7108,
      "పాలక": 7109,
      "ధ్వజ": 7110,
      "కర్ణాటకలో": 7111,
      "ఆదేశ": 7112,
      "ప్రపంచంలోని": 7113,
      "ఫోర్స్": 7114,
      "చవి": 7115,
      "చిద": 7116,
      "నినాదాలు": 7117,
      "ంచాలనే": 7118,
      "విలీ": 7119,
      "జిన్": 7120,
      "ప్రదేశం": 7121,
      "రాజేంద్ర": 7122,
      "కూల్": 7123,
      "ట్టం": 7124,
      "కోవటం": 7125,
      "సౌత్": 7126,
      "ఫ్లో": 7127,
      "నాల్డ్": 7128,
      "నృ": 7129,
      "సిస్ట": 7130,
      "భరోసా": 7131,
      "కలను": 7132,
      "లోటు": 7133,
      "స్థలికి": 7134,
      "మైందని": 7135,
      "ఫీల్": 7136,
      "ంటున్నారని": 7137,
      "అడ్డం": 7138,
      "ట్లేదు": 7139,
      "ద్వీ": 7140,
      "సైన్": 7141,
      "రావాలి": 7142,
      "నిరస": 7143,
      "వేయాలి": 7144,
      "క్షీణి": 7145,
      "స్వాతంత్ర": 7146,
      "కేబినెట్": 7147,
      "లండ": 7148,
      "జిహా": 7149,
      "పరో": 7150,
      "చేస్తోందని": 7151,
      "యింగ్": 7152,
      "యాని": 7153,
      "పాలనా": 7154,
      "గనుక": 7155,
      "ంచాలన్న": 7156,
      "రాలుగా": 7157,
      "క్యాచ్": 7158,
      "మహాత్": 7159,
      "ఆక్రమి": 7160,
      "సర్దు": 7161,
      "రూపు": 7162,
      "ఉండడంతో": 7163,
      "నెలల్లో": 7164,
      "ఏడుగురు": 7165,
      "శాశ్వత": 7166,
      "రెగ్యులర్": 7167,
      "అసి": 7168,
      "ట్టా": 7169,
      "పార్టీలకు": 7170,
      "ంచుకునేందుకు": 7171,
      "ప్రీత్": 7172,
      "కేరళలో": 7173,
      "సంతాపం": 7174,
      "విలన్": 7175,
      "పౌర": 7176,
      "టిన": 7177,
      "వెన్యూ": 7178,
      "కారా": 7179,
      "తీసుకుంటే": 7180,
      "వ్యక్తుల": 7181,
      "జరిపారు": 7182,
      "డైలా": 7183,
      "చట్టాన్ని": 7184,
      "కలుగుతుంది": 7185,
      "ఠీ": 7186,
      "స్కా": 7187,
      "కోణం": 7188,
      "నోటి": 7189,
      "చర్చించారు": 7190,
      "కొట్టింది": 7191,
      "64": 7192,
      "ఉంటూ": 7193,
      "బదులు": 7194,
      "కోడ": 7195,
      "బోధ": 7196,
      "పుణ్య": 7197,
      "పరిధిలోని": 7198,
      "అశ్విన్": 7199,
      "జ్యం": 7200,
      "వాదులు": 7201,
      "వుల్లో": 7202,
      "వెచ్చి": 7203,
      "ప్రభుత్వంలో": 7204,
      "సామాన్య": 7205,
      "చేస్తున్నాం": 7206,
      "వచ్చాక": 7207,
      "కఠినంగా": 7208,
      "కెనడా": 7209,
      "ఆర్థికంగా": 7210,
      "సంతోషి": 7211,
      "వయసులో": 7212,
      "కాలుష్యం": 7213,
      "పాపం": 7214,
      "టీటీడీ": 7215,
      "ద్దరు": 7216,
      "సమక్షంలో": 7217,
      "చేసుకుంటూ": 7218,
      "దృశ్యం": 7219,
      "సీఈ": 7220,
      "జీఎస్టీ": 7221,
      "పెరుగుదల": 7222,
      "సాగుతోంది": 7223,
      "బడ్డారు": 7224,
      "త్తిన": 7225,
      "ఉద్యమం": 7226,
      "పక్కనే": 7227,
      "బియ్యం": 7228,
      "కైవసం": 7229,
      "యము": 7230,
      "గాడి": 7231,
      "లాంచ్": 7232,
      "పై": 7233,
      "సైబర్": 7234,
      "ఆందోళనకు": 7235,
      "ఆడియో": 7236,
      "కాళ": 7237,
      "పోతారు": 7238,
      "డాన్": 7239,
      "సాగే": 7240,
      "పక్కల": 7241,
      "పత్రాలు": 7242,
      "పుష్కల": 7243,
      "తుంటాయి": 7244,
      "రానా": 7245,
      "ఇంటర్వ్యూలో": 7246,
      "క్షతగాత్రులను": 7247,
      "హెగ్డే": 7248,
      "నియన్": 7249,
      "స్ట్రేషన్": 7250,
      "చిదంబ": 7251,
      "ఇమ్రాన్": 7252,
      "నెక్": 7253,
      "వహిస్తున్న": 7254,
      "తున్నామని": 7255,
      "ఆటగాడు": 7256,
      "యజమాని": 7257,
      "కంట": 7258,
      "వ్యయం": 7259,
      "చెప్పాలని": 7260,
      "తప్పక": 7261,
      "మోహన": 7262,
      "67": 7263,
      "కమర్": 7264,
      "లార్": 7265,
      "ర్జీ": 7266,
      "లిష్": 7267,
      "పేర్కొన్నాడు": 7268,
      "తీర్మానం": 7269,
      "జనతా": 7270,
      "దృక్": 7271,
      "రవితేజ": 7272,
      "కులతో": 7273,
      "ఆర్డర్": 7274,
      "ప్లీ": 7275,
      "సున్ని": 7276,
      "కోణ": 7277,
      "చడం": 7278,
      "తనతో": 7279,
      "ప్రాక్": 7280,
      "సమకూర్": 7281,
      "సెట్స్": 7282,
      "వీరిని": 7283,
      "ప్రతిరోజూ": 7284,
      "మొదట్లో": 7285,
      "స్టేషన్లో": 7286,
      "గమనించిన": 7287,
      "లర్లు": 7288,
      "ంచటానికి": 7289,
      "కొట్టు": 7290,
      "సీట్ల": 7291,
      "ఉంటున్న": 7292,
      "సిలి": 7293,
      "ఇంధన": 7294,
      "కలిగించే": 7295,
      "చర్యలను": 7296,
      "బిల్లును": 7297,
      "హ్యాపీ": 7298,
      "ఉష్ణోగ్రత": 7299,
      "దాం": 7300,
      "బ్లూ": 7301,
      "సేపటి": 7302,
      "స్థాపన": 7303,
      "సంస్థలకు": 7304,
      "పుస్తకం": 7305,
      "మహారాష్ట్రలో": 7306,
      "పొడిగి": 7307,
      "ేశ్": 7308,
      "వికా": 7309,
      "సీన్": 7310,
      "స్టాక్": 7311,
      "చదవ": 7312,
      "జయల": 7313,
      "చివర": 7314,
      "ద్కర్": 7315,
      "అందిస్తున్న": 7316,
      "కోట్లతో": 7317,
      "అరుదైన": 7318,
      "చర": 7319,
      "సద్": 7320,
      "విడిగా": 7321,
      "జిల్లాకు": 7322,
      "ఆశలు": 7323,
      "ప్రెసిడెంట్": 7324,
      "68": 7325,
      "శ్రీదేవి": 7326,
      "ప్యాకేజీ": 7327,
      "అసంతృప్తి": 7328,
      "మాయా": 7329,
      "పోలేదు": 7330,
      "శ్రీకాంత్": 7331,
      "ముందుగానే": 7332,
      "దోపిడీ": 7333,
      "టన్న": 7334,
      "కుదిరి": 7335,
      "కొట్టిన": 7336,
      "సంపూర్ణ": 7337,
      "సెమీ": 7338,
      "చూడాలని": 7339,
      "ండీస్": 7340,
      "మహీంద్రా": 7341,
      "నెట్టి": 7342,
      "కలవ": 7343,
      "విరాళ": 7344,
      "డిగ్రీల": 7345,
      "సోదరుడు": 7346,
      "కును": 7347,
      "జాయ్": 7348,
      "స్వయం": 7349,
      "పెట్టుకున్న": 7350,
      "సృష్టించింది": 7351,
      "నిలిచిన": 7352,
      "భయపడ": 7353,
      "ఐశ్వర్": 7354,
      "చంద్": 7355,
      "బాహుబలి": 7356,
      "చేరే": 7357,
      "సేవా": 7358,
      "అవకాశాన్ని": 7359,
      "నిరసనలు": 7360,
      "51": 7361,
      "ఎము": 7362,
      "వస్తున్నారు": 7363,
      "లోయ": 7364,
      "వర్త": 7365,
      "లెన్స్": 7366,
      "ఎన్నడూ": 7367,
      "నిత్య": 7368,
      "పీల్": 7369,
      "తీసుకున్నా": 7370,
      "సూచించింది": 7371,
      "ాల్సిందిగా": 7372,
      "కొల": 7373,
      "వుండి": 7374,
      "రాజ్యం": 7375,
      "సైన్స్": 7376,
      "ఒలింపిక్స్": 7377,
      "గణా": 7378,
      "చేయాలో": 7379,
      "వాటర్": 7380,
      "పరిపాలన": 7381,
      "బితే": 7382,
      "ఫిట్": 7383,
      "ఇంకె": 7384,
      "య్యాక": 7385,
      "శీల": 7386,
      "సభ్యులతో": 7387,
      "గాయలు": 7388,
      "ఫ్టీ": 7389,
      "ప్రాంతాలలో": 7390,
      "ధరల": 7391,
      "అదేవిధంగా": 7392,
      "గోవా": 7393,
      "తమిళం": 7394,
      "చక": 7395,
      "పర్వ": 7396,
      "దీనిలో": 7397,
      "క్కిరి": 7398,
      "ఛాన్స్": 7399,
      "రోడ్లు": 7400,
      "పూర్వక": 7401,
      "నే్న": 7402,
      "మోడ": 7403,
      "కార్యా": 7404,
      "మరణాలు": 7405,
      "మెగాస్టార్": 7406,
      "రెండేళ్ల": 7407,
      "కిడ్నా": 7408,
      "కక్ష": 7409,
      "సప్": 7410,
      "తెల": 7411,
      "చూస్తుంటే": 7412,
      "సవరి": 7413,
      "నిగా": 7414,
      "నె్": 7415,
      "నిర్వహిస్తున్నారు": 7416,
      "స్టార్ట్": 7417,
      "చెల్లింపు": 7418,
      "ధికారి": 7419,
      "ఆటగాళ్లు": 7420,
      "కబు": 7421,
      "స్పూ": 7422,
      "కోడ్": 7423,
      "పురుషులు": 7424,
      "సరదాగా": 7425,
      "చూశారు": 7426,
      "అందరికి": 7427,
      "చేసుకోవడానికి": 7428,
      "ప్రేక్షకులకు": 7429,
      "సచివాల": 7430,
      "వ్యర్థ": 7431,
      "ప్రాంగ": 7432,
      "వారీగా": 7433,
      "స్థులు": 7434,
      "నందమూరి": 7435,
      "ఏంట": 7436,
      "దగ్గు": 7437,
      "ఫండ్": 7438,
      "చెబితే": 7439,
      "ఢిల్లీకి": 7440,
      "బీభత్స": 7441,
      "ఫలం": 7442,
      "మల్ల": 7443,
      "ఒకటే": 7444,
      "కోవడంతో": 7445,
      "లెక్": 7446,
      "నిజాయితీ": 7447,
      "అధ్యక్షుడిగా": 7448,
      "ఫ్యూ": 7449,
      "గురువు": 7450,
      "కట్టుబడి": 7451,
      "వనే్": 7452,
      "సజ్": 7453,
      "తుఫా": 7454,
      "గ్రామాల్లో": 7455,
      "ఆచరణ": 7456,
      "డబుల్": 7457,
      "క్లిక్": 7458,
      "తక్షణమే": 7459,
      "పుష్కలంగా": 7460,
      "వీలైన": 7461,
      "పీఠ": 7462,
      "మూత్ర": 7463,
      "ఇప్పటివరకూ": 7464,
      "ఫ్యాక్టరీ": 7465,
      "కన్పి": 7466,
      "ఆధిప": 7467,
      "పవార్": 7468,
      "సారీ": 7469,
      "విందు": 7470,
      "పాతం": 7471,
      "పెళ్ళ": 7472,
      "హిక": 7473,
      "భార్యా": 7474,
      "ధీర్": 7475,
      "రాదని": 7476,
      "తాగి": 7477,
      "గోపీ": 7478,
      "తల్లిదండ్రులకు": 7479,
      "ఇండో": 7480,
      "వార్షిక": 7481,
      "కష్టపడి": 7482,
      "కాంబి": 7483,
      "రాజ్యాంగం": 7484,
      "గతంగా": 7485,
      "ంగాన్ని": 7486,
      "తెల్": 7487,
      "అమెరికన్": 7488,
      "పర్యటనలో": 7489,
      "800": 7490,
      "తండ్ర": 7491,
      "ప్రథ": 7492,
      "కావలసిన": 7493,
      "మేన": 7494,
      "అందించాడు": 7495,
      "హోట": 7496,
      "పెట్టాలని": 7497,
      "శే్": 7498,
      "పునరావృ": 7499,
      "ప్రణ": 7500,
      "తున్నట్టు": 7501,
      "తాత": 7502,
      "రీలు": 7503,
      "అనుచరు": 7504,
      "మృదు": 7505,
      "కార్యక్రమాలను": 7506,
      "బ్రాహ్మ": 7507,
      "ప్రశాంతంగా": 7508,
      "భరత్": 7509,
      "యడం": 7510,
      "ర్గా": 7511,
      "గెలవ": 7512,
      "మాధ్యమ": 7513,
      "నయన": 7514,
      "ఏర్పడి": 7515,
      "ంచనున్నట్లు": 7516,
      "అందజేశారు": 7517,
      "చేతుల్లో": 7518,
      "రాగా": 7519,
      "తోటి": 7520,
      "సెర్": 7521,
      "ంపుల్": 7522,
      "జీర్ణ": 7523,
      "కోవి": 7524,
      "లీటర్": 7525,
      "జర్మనీ": 7526,
      "ప్రయోగి": 7527,
      "రచి": 7528,
      "ఐక్యరాజ్య": 7529,
      "మత్స్య": 7530,
      "బతుకు": 7531,
      "షణ్": 7532,
      "ంచాలన్నారు": 7533,
      "మార్కులు": 7534,
      "విశ్వాస": 7535,
      "మల్లి": 7536,
      "మిశ్రా": 7537,
      "చెబుతున్నాయి": 7538,
      "దళాలు": 7539,
      "రష్మిక": 7540,
      "ంచరు": 7541,
      "క్కిన": 7542,
      "తెచ్చుకున్న": 7543,
      "ఉద్యోగులకు": 7544,
      "నెహ్రూ": 7545,
      "ఎండీ": 7546,
      "వెళ్లింది": 7547,
      "దక్కింది": 7548,
      "కేంద్రానికి": 7549,
      "నిర్మాణంలో": 7550,
      "చర్చకు": 7551,
      "54": 7552,
      "యన్న": 7553,
      "లాట": 7554,
      "కొడ": 7555,
      "పనిచేయ": 7556,
      "సౌందర్": 7557,
      "మంటలను": 7558,
      "గాయపడ్డ": 7559,
      "హెల్త్": 7560,
      "అణు": 7561,
      "ఎన్ను": 7562,
      "ప్రతిష్టా": 7563,
      "నివాళ": 7564,
      "తెలుసుకోవ": 7565,
      "పరిణామం": 7566,
      "ఆరంభ": 7567,
      "ఎంద": 7568,
      "బెంచ్": 7569,
      "దిగ్భ్రాంతి": 7570,
      "ఆఫ్రికా": 7571,
      "కార్ల": 7572,
      "కథను": 7573,
      "వేరియంట్": 7574,
      "శారీరక": 7575,
      "ొద్దు": 7576,
      "అవుతున్నారు": 7577,
      "కథనం": 7578,
      "దగ్గరగా": 7579,
      "కణ": 7580,
      "గాయని": 7581,
      "కనిపించే": 7582,
      "కంప్యూటర్": 7583,
      "ఉందో": 7584,
      "ఓకే": 7585,
      "ంచదు": 7586,
      "సుధా": 7587,
      "రెండుసార్లు": 7588,
      "వహిస్తున్నారు": 7589,
      "సింహా": 7590,
      "సౌకర్యాలు": 7591,
      "స్టెంట్": 7592,
      "అమరావతి": 7593,
      "రెట్టి": 7594,
      "స్పష్టమైన": 7595,
      "అవార్డులు": 7596,
      "పనులను": 7597,
      "ంబి": 7598,
      "ఇస్తామని": 7599,
      "లానికి": 7600,
      "ముద్ద": 7601,
      "దానితో": 7602,
      "పాఠశాలలు": 7603,
      "కొరత": 7604,
      "వనే్డ": 7605,
      "చేతికి": 7606,
      "ఇందిరా": 7607,
      "అంబేద్కర్": 7608,
      "నిధుల": 7609,
      "అధ్యా": 7610,
      "స్రా": 7611,
      "చెత్త": 7612,
      "మూలంగా": 7613,
      "పడడం": 7614,
      "హైకోర్టులో": 7615,
      "ఇసు": 7616,
      "మాబాద్": 7617,
      "ఇప్పుడే": 7618,
      "ఏకైక": 7619,
      "ౌట్": 7620,
      "గాయం": 7621,
      "గోడు": 7622,
      "హింసా": 7623,
      "దినోత్సవం": 7624,
      "ఉద్దేశించి": 7625,
      "చేర్చు": 7626,
      "సుం": 7627,
      "లక్షలాది": 7628,
      "72": 7629,
      "స్తుందో": 7630,
      "చెప్పండి": 7631,
      "పెట్టాలి": 7632,
      "గెలిపి": 7633,
      "సింధు": 7634,
      "ప్రార్థి": 7635,
      "తమై": 7636,
      "కూరగాయలు": 7637,
      "శాతంగా": 7638,
      "జీబీ": 7639,
      "అవన్నీ": 7640,
      "సంబందించిన": 7641,
      "సిక్సర్": 7642,
      "పాక్షిక": 7643,
      "ఈశాన్య": 7644,
      "ఆపై": 7645,
      "ఏంటో": 7646,
      "విశ": 7647,
      "త్తమ": 7648,
      "కరెన్సీ": 7649,
      "పురాతన": 7650,
      "స్కీ": 7651,
      "చేసాడు": 7652,
      "మరణాల": 7653,
      "బలవంతంగా": 7654,
      "వేగంతో": 7655,
      "త్వానికి": 7656,
      "సేన్": 7657,
      "మరొకరు": 7658,
      "మజ్": 7659,
      "బట్టారు": 7660,
      "ఛై": 7661,
      "చేయలేదని": 7662,
      "అభివర్ణి": 7663,
      "దగ్గరికి": 7664,
      "వీడియోలు": 7665,
      "తీసుకెళ్లి": 7666,
      "ంచమని": 7667,
      "ఆర్టి": 7668,
      "గంజాయి": 7669,
      "కుమారి": 7670,
      "ప్రాముఖ్య": 7671,
      "గడప": 7672,
      "ఎడమ": 7673,
      "భయాందోళ": 7674,
      "తోనూ": 7675,
      "సాని": 7676,
      "మేడ": 7677,
      "దగ్": 7678,
      "చూచి": 7679,
      "వ్వండి": 7680,
      "సమయాన్ని": 7681,
      "అందువలన": 7682,
      "కేంద్రంగా": 7683,
      "వెళ్ళే": 7684,
      "నట్టు": 7685,
      "సులను": 7686,
      "నీర": 7687,
      "బస": 7688,
      "విము": 7689,
      "పూల": 7690,
      "తీవ్రత": 7691,
      "సందర్శ": 7692,
      "దొరుకు": 7693,
      "అవినీ": 7694,
      "పొందవచ్చు": 7695,
      "బాగుంది": 7696,
      "గౌతమ్": 7697,
      "కరాలు": 7698,
      "వైట్": 7699,
      "మోదీకి": 7700,
      "నిలవ": 7701,
      "చక్కని": 7702,
      "హాయిగా": 7703,
      "అత్యున్నత": 7704,
      "రక్ష": 7705,
      "ప్రాచీ": 7706,
      "టాన్ని": 7707,
      "మీదకు": 7708,
      "భక్తుల": 7709,
      "హిందీలో": 7710,
      "నెటిజన్లు": 7711,
      "గోల్డ్": 7712,
      "నిర్ణయించారు": 7713,
      "ఉగ్రవాదు": 7714,
      "మసీదు": 7715,
      "పరోక్ష": 7716,
      "కమ్మ": 7717,
      "నిదర్శనం": 7718,
      "తరబడి": 7719,
      "పనిని": 7720,
      "అనవసర": 7721,
      "వారస": 7722,
      "ఇన్నింగ్": 7723,
      "ఇస్తుంది": 7724,
      "తప": 7725,
      "కానున్నారు": 7726,
      "వామ": 7727,
      "ఉభయ": 7728,
      "నిం": 7729,
      "కాంబినేషన్": 7730,
      "ప్రగాఢ": 7731,
      "ంచాడని": 7732,
      "కోల్క": 7733,
      "బట్టలు": 7734,
      "సెక్యూరిటీ": 7735,
      "69": 7736,
      "అనా": 7737,
      "దన్న": 7738,
      "నమస్": 7739,
      "కొచ్చి": 7740,
      "తేనె": 7741,
      "ట్లయితే": 7742,
      "నిర్వహించి": 7743,
      "బాధితులు": 7744,
      "బ్రిటి": 7745,
      "్యానికి": 7746,
      "డీజీ": 7747,
      "కాంగ్రె": 7748,
      "మహ్మ": 7749,
      "ఏర్పాటుకు": 7750,
      "సౌకర్యం": 7751,
      "ఆడియన్స్": 7752,
      "డాలర్ల": 7753,
      "చిత": 7754,
      "దేని": 7755,
      "చేయడమే": 7756,
      "అందిస్తుంది": 7757,
      "క్రిమి": 7758,
      "్రావు": 7759,
      "స్ట్రి": 7760,
      "పురస్కార": 7761,
      "ఎత్త": 7762,
      "ప్రవా": 7763,
      "భాగ్య": 7764,
      "ప్రత్యేకమైన": 7765,
      "వస్తువులు": 7766,
      "సమర్థి": 7767,
      "వేడుకలు": 7768,
      "78": 7769,
      "ఐరో": 7770,
      "ఆమెపై": 7771,
      "ఇకపై": 7772,
      "వాహనాలను": 7773,
      "ఎప్పుడో": 7774,
      "రికార్డ్": 7775,
      "జిహాదీ": 7776,
      "ఐతే": 7777,
      "చేయగలి": 7778,
      "ఇప్పటికి": 7779,
      "పట్టే": 7780,
      "పరచు": 7781,
      "కారణంగానే": 7782,
      "వినిపిస్తున్నాయి": 7783,
      "కాగి": 7784,
      "పూజి": 7785,
      "నిర్వహించే": 7786,
      "సార్వత్రిక": 7787,
      "చేతుల": 7788,
      "క్షమి": 7789,
      "థ్రిల్లర్": 7790,
      "నుల": 7791,
      "సిల్": 7792,
      "తరుణంలో": 7793,
      "ఎన్సీపీ": 7794,
      "పటిష్ట": 7795,
      "భగవంతు": 7796,
      "అంతరా": 7797,
      "త్సవాలు": 7798,
      "ఎదుర్కొని": 7799,
      "ఇట": 7800,
      "విరిగి": 7801,
      "నమోదైన": 7802,
      "నిలిచారు": 7803,
      "ప్లస్": 7804,
      "వెలువడ": 7805,
      "మోటార్స్": 7806,
      "కమర్షియల్": 7807,
      "తనే": 7808,
      "రాస": 7809,
      "విధ్": 7810,
      "ప్రారంభమైన": 7811,
      "రాజ్యసభలో": 7812,
      "హడా": 7813,
      "లికా": 7814,
      "మార్గాలు": 7815,
      "ఫిక్స్": 7816,
      "ఎంతోమంది": 7817,
      "జ్ఞాప": 7818,
      "క్యారెట్ల": 7819,
      "పోలవరం": 7820,
      "పుట్టు": 7821,
      "ంచినప్పుడు": 7822,
      "గలరు": 7823,
      "ఇన్వె": 7824,
      "గణనీయంగా": 7825,
      "గడిచిన": 7826,
      "పరువు": 7827,
      "పరిశీలన": 7828,
      "తగ్గుతుంది": 7829,
      "కస్": 7830,
      "పాటుగా": 7831,
      "తృణ": 7832,
      "మామూలు": 7833,
      "మళ్లి": 7834,
      "్రాయి": 7835,
      "శ్రీకృష్ణ": 7836,
      "చంద్రశేఖర్": 7837,
      "శేఖర": 7838,
      "ఎకరాల": 7839,
      "పల్ల": 7840,
      "ప్రవహి": 7841,
      "నాన్": 7842,
      "యుద్ధా": 7843,
      "బలగాలు": 7844,
      "కానుక": 7845,
      "కోలేక": 7846,
      "చేస్తున్నట్టు": 7847,
      "ారంటే": 7848,
      "క్లీ": 7849,
      "మిర్చి": 7850,
      "మేనని": 7851,
      "గూగుల్": 7852,
      "సంక్షేమం": 7853,
      "యిట్": 7854,
      "సుంద": 7855,
      "కేంద్రమంత్రి": 7856,
      "గౌడ్": 7857,
      "రాష్ట్రాన్ని": 7858,
      "ఉష్ణోగ్రతలు": 7859,
      "వుతున్న": 7860,
      "దాట": 7861,
      "జగన్నా": 7862,
      "ప్రొఫెసర్": 7863,
      "1000": 7864,
      "సాన్": 7865,
      "ఆలస్యంగా": 7866,
      "ఏడాదికి": 7867,
      "చెట్లు": 7868,
      "మెహ": 7869,
      "ంబరు": 7870,
      "దారుణం": 7871,
      "స్నేహం": 7872,
      "పిడి": 7873,
      "సినిమాటో": 7874,
      "గొడవలు": 7875,
      "తెలీదు": 7876,
      "గోపాల": 7877,
      "విధ్వం": 7878,
      "ముమ్మ": 7879,
      "బాణ": 7880,
      "పనిచేస్తుంది": 7881,
      "ప్రేమలో": 7882,
      "సంతరి": 7883,
      "999": 7884,
      "సానుకూల": 7885,
      "తురు": 7886,
      "వుంటాయి": 7887,
      "రెచ్చ": 7888,
      "చేస్తాడు": 7889,
      "రామారావు": 7890,
      "దేవాలయం": 7891,
      "ఔషధ": 7892,
      "ఐదో": 7893,
      "స్ట్రా": 7894,
      "కుటుంబాలు": 7895,
      "కాపు": 7896,
      "తెలిపాయి": 7897,
      "భిప్రా": 7898,
      "క్రమం": 7899,
      "డెవల": 7900,
      "ఆఫీసు": 7901,
      "ఎమో": 7902,
      "వర్షా": 7903,
      "అభిప్రాయపడ్డారు": 7904,
      "పారా": 7905,
      "లాభాలు": 7906,
      "మిరి": 7907,
      "కెళ్లి": 7908,
      "వృక్ష": 7909,
      "ఎన్నికలలో": 7910,
      "కార్తీక్": 7911,
      "అభినందనలు": 7912,
      "బట్టే": 7913,
      "వేట": 7914,
      "వచ్చినప్పుడు": 7915,
      "గుండెపోటు": 7916,
      "పెడుతున్నారు": 7917,
      "2014లో": 7918,
      "చెప్పాను": 7919,
      "నాణ్యత": 7920,
      "మహ్మద్": 7921,
      "దమ్ము": 7922,
      "అతనితో": 7923,
      "వ్యక్తికి": 7924,
      "ఐరోపా": 7925,
      "నేనె": 7926,
      "నేనూ": 7927,
      "కొవ్వు": 7928,
      "మాట్లాడి": 7929,
      "దృష్టం": 7930,
      "రోజే": 7931,
      "వెల": 7932,
      "భావో": 7933,
      "2013": 7934,
      "పరిచయ": 7935,
      "అభిమానుల": 7936,
      "డబ్ల్యూ": 7937,
      "కుది": 7938,
      "ంచను": 7939,
      "టివి": 7940,
      "హిమా": 7941,
      "ఉంటుందో": 7942,
      "టైగర్": 7943,
      "ఆడే": 7944,
      "నచ్చిన": 7945,
      "రేట్లు": 7946,
      "చర్మ": 7947,
      "లైన్లో": 7948,
      "స్పందించిన": 7949,
      "నగరంలోని": 7950,
      "టూరి": 7951,
      "సంభాష": 7952,
      "గింజ": 7953,
      "బాధపడుతున్న": 7954,
      "గూడె": 7955,
      "కిలోల": 7956,
      "ప్రసిద్ధ": 7957,
      "వాజ్": 7958,
      "సమానంగా": 7959,
      "చూడవచ్చు": 7960,
      "దగిన": 7961,
      "శారని": 7962,
      "ప్రమాదాలు": 7963,
      "తెలియరాలేదు": 7964,
      "పట్టింది": 7965,
      "మ్యాచ్లు": 7966,
      "పొందుతున్నారు": 7967,
      "బస్సులు": 7968,
      "ఫార్మా": 7969,
      "గ్రఫీ": 7970,
      "పనిచేసిన": 7971,
      "జరగకుండా": 7972,
      "ఆందోళనలు": 7973,
      "సృష్టించిన": 7974,
      "పండగ": 7975,
      "పట్టణం": 7976,
      "పేస్": 7977,
      "ంచుకుంటూ": 7978,
      "నైతిక": 7979,
      "వివక్ష": 7980,
      "ప్రాచీన": 7981,
      "85": 7982,
      "డియంలో": 7983,
      "ఎంజాయ్": 7984,
      "తలుపులు": 7985,
      "యాలతో": 7986,
      "ఉండేవి": 7987,
      "రళీ": 7988,
      "దవ": 7989,
      "హోమ్": 7990,
      "నిర్వహిస్తారు": 7991,
      "తీర్చిది": 7992,
      "ఆచూ": 7993,
      "మురళీ": 7994,
      "ప్రాణా": 7995,
      "ప్రస్తుతానికి": 7996,
      "పోరాడు": 7997,
      "నెలకొన్న": 7998,
      "క్రియేట్": 7999,
      "ఇశ్రాయేలీ": 8000,
      "కంట్రోల్": 8001,
      "కడి": 8002,
      "ఆయనపై": 8003,
      "మర్చి": 8004,
      "ఉద్యోగి": 8005,
      "ఇంగ్ల": 8006,
      "సీతారామన్": 8007,
      "యాజమాన్": 8008,
      "స్పృహ": 8009,
      "పోయాను": 8010,
      "ఉన్నతాధికారులు": 8011,
      "పదో": 8012,
      "ప్రయత్న": 8013,
      "ఊహించని": 8014,
      "వాడికి": 8015,
      "ముంబైలో": 8016,
      "ఆశ్చర్యం": 8017,
      "అసోసి": 8018,
      "దుఃఖ": 8019,
      "పాండే": 8020,
      "రెవెన్యూ": 8021,
      "ట్టె": 8022,
      "కేసుల్లో": 8023,
      "యూవీ": 8024,
      "వ్యాఖ్యలపై": 8025,
      "తెలుసుకుందాం": 8026,
      "కాకి": 8027,
      "వర్స్": 8028,
      "ఇంక": 8029,
      "ఖాయ": 8030,
      "ఆలోచ": 8031,
      "అనిపిస్తుంది": 8032,
      "వసరం": 8033,
      "రౌండ్": 8034,
      "నేతృత్వంలో": 8035,
      "డివి": 8036,
      "చేసుకున్నా": 8037,
      "పడగొట్ట": 8038,
      "యెల్": 8039,
      "సాంప్ర": 8040,
      "మహేశ్": 8041,
      "ఇక్కడికి": 8042,
      "సర్వీస్": 8043,
      "ప్రత్యామ్నాయ": 8044,
      "రాత": 8045,
      "పోగొ": 8046,
      "పెన్షన్": 8047,
      "హీరోయిన్లుగా": 8048,
      "విస్తరణ": 8049,
      "పర్యవేక్షి": 8050,
      "త్రీ": 8051,
      "రాష్ట్రవ్యాప్తంగా": 8052,
      "సౌర": 8053,
      "తమిళనాడులో": 8054,
      "క్రమంలోనే": 8055,
      "విద్యార్థులను": 8056,
      "విధించారు": 8057,
      "శరణ": 8058,
      "కొలు": 8059,
      "చేర్చ": 8060,
      "అడిగాడు": 8061,
      "ఇస్తారు": 8062,
      "ంతలు": 8063,
      "పెంచి": 8064,
      "మార్లు": 8065,
      "చోరీ": 8066,
      "అమితాబ్": 8067,
      "కస్టడీ": 8068,
      "బాలా": 8069,
      "విదేశాల్లో": 8070,
      "ంగో": 8071,
      "సీస్": 8072,
      "జాతర": 8073,
      "నరేంద్రమోదీ": 8074,
      "దాడులకు": 8075,
      "పోషించారు": 8076,
      "తిరుమల": 8077,
      "విమానంలో": 8078,
      "ప్రొడక్షన్స్": 8079,
      "ఫ్రంట్": 8080,
      "ాలన్నీ": 8081,
      "త్న": 8082,
      "సుధీర్": 8083,
      "దివ్య": 8084,
      "మోహరి": 8085,
      "తమైంది": 8086,
      "హుటా": 8087,
      "లూరు": 8088,
      "కోరుతూ": 8089,
      "పాలిత": 8090,
      "కడప": 8091,
      "ఛైర్మన్": 8092,
      "శ్చా": 8093,
      "డీఎంకే": 8094,
      "నటిస్తున్నాడు": 8095,
      "మన్మోహన్": 8096,
      "గిరిజన": 8097,
      "ధ్రువీ": 8098,
      "ప్టర్": 8099,
      "ముఠా": 8100,
      "రూపొందిన": 8101,
      "పంపు": 8102,
      "ఐఎం": 8103,
      "ఓటర్లు": 8104,
      "బాని": 8105,
      "మొక్కలు": 8106,
      "కార్యాచరణ": 8107,
      "స్కో": 8108,
      "కాదన్నారు": 8109,
      "నంటూ": 8110,
      "మలి": 8111,
      "విగా": 8112,
      "విత్": 8113,
      "ట్రీ": 8114,
      "కళ్యా": 8115,
      "జరగనున్న": 8116,
      "దనం": 8117,
      "నయం": 8118,
      "మున్న": 8119,
      "రెంట్": 8120,
      "చేయాలనే": 8121,
      "పొట్ట": 8122,
      "విధానంలో": 8123,
      "జట్టును": 8124,
      "పత్రం": 8125,
      "పార్లమెంటరీ": 8126,
      "ఆవిష్కరి": 8127,
      "చిదంబరం": 8128,
      "మరా": 8129,
      "మయం": 8130,
      "పుత్ర": 8131,
      "స్థాపి": 8132,
      "చ్చాయి": 8133,
      "కలుగ": 8134,
      "ంటామని": 8135,
      "మధుమే": 8136,
      "లోపం": 8137,
      "నేపాల్": 8138,
      "పిక": 8139,
      "ష్టు": 8140,
      "ంచుచు": 8141,
      "చుట్టుపక్కల": 8142,
      "యాక్టివ్": 8143,
      "సిద్ధాంత": 8144,
      "ఇంట": 8145,
      "నప్పుడు": 8146,
      "ర్స్": 8147,
      "లాస": 8148,
      "ముర": 8149,
      "వరుణ్": 8150,
      "చేస్తాను": 8151,
      "బస్సులో": 8152,
      "టరు": 8153,
      "భట్టి": 8154,
      "ంచాల": 8155,
      "వారాల": 8156,
      "ఫెస్టో": 8157,
      "శుభ్రంగా": 8158,
      "ఏసీ": 8159,
      "అయిపోయింది": 8160,
      "రంగులు": 8161,
      "నిలిచాడు": 8162,
      "సముద్రం": 8163,
      "ఇజ్రాయి": 8164,
      "విదితమే": 8165,
      "విషయానికి": 8166,
      "మందిర": 8167,
      "అంతటి": 8168,
      "కొందరికి": 8169,
      "మూవీలో": 8170,
      "కోల్పోయింది": 8171,
      "హర్ష": 8172,
      "దిగుమతి": 8173,
      "మైనారిటీ": 8174,
      "ఖాయం": 8175,
      "వచ్చినట్లు": 8176,
      "వస్తువు": 8177,
      "ఎఫ్ఐ": 8178,
      "మెరుపు": 8179,
      "ట్యూబ్": 8180,
      "సస్పెండ్": 8181,
      "వంక": 8182,
      "ంటింగ్": 8183,
      "అదుపులో": 8184,
      "విస్తృత": 8185,
      "రజనీకాంత్": 8186,
      "బకాయి": 8187,
      "తలపై": 8188,
      "స్వంత": 8189,
      "గుప్పించారు": 8190,
      "ఆంగ్ల": 8191,
      "లీల": 8192,
      "సేప": 8193,
      "దూకుడు": 8194,
      "శాస్త్రం": 8195,
      "పర్యవేక్షణ": 8196,
      "66": 8197,
      "మయ్య": 8198,
      "ద్వై": 8199,
      "తప్పే": 8200,
      "రాజకీయంగా": 8201,
      "పాల్గొని": 8202,
      "పరిశీలించి": 8203,
      "గద్ద": 8204,
      "దుస్తులు": 8205,
      "డ్లు": 8206,
      "అంత్య": 8207,
      "కలలు": 8208,
      "యత్నం": 8209,
      "మారుతుంది": 8210,
      "తమిళ్": 8211,
      "కంగారు": 8212,
      "సంభాషణ": 8213,
      "నడవ": 8214,
      "రచ్చ": 8215,
      "లిక్కి": 8216,
      "అనుబంధ": 8217,
      "వ్రే": 8218,
      "ప్రేమను": 8219,
      "తర్వాతి": 8220,
      "గానూ": 8221,
      "తిండి": 8222,
      "పుంజు": 8223,
      "రిటైర్": 8224,
      "సెక్రటరీ": 8225,
      "లండన్": 8226,
      "హోండా": 8227,
      "కార్యకర్త": 8228,
      "రొమా": 8229,
      "రిజిస్ట్రేషన్": 8230,
      "కిడ్నాప్": 8231,
      "రాయల్": 8232,
      "దిక్": 8233,
      "క్రిస్": 8234,
      "సమయంలోనే": 8235,
      "నేతలకు": 8236,
      "అభిమానులకు": 8237,
      "ఫొటోలు": 8238,
      "భరించ": 8239,
      "జట్ల": 8240,
      "రియర్": 8241,
      "బాడీ": 8242,
      "అధిష్టా": 8243,
      "రైతులను": 8244,
      "నిర్ణయానికి": 8245,
      "భార్యను": 8246,
      "స్కూటర్": 8247,
      "పిక్సెల్": 8248,
      "71": 8249,
      "పాలను": 8250,
      "మమ్మల్ని": 8251,
      "పోకుండా": 8252,
      "శిష్య": 8253,
      "పద్ధతిలో": 8254,
      "భూకంపం": 8255,
      "ఇంగ్లండ్": 8256,
      "రెట్లు": 8257,
      "రోజురోజు": 8258,
      "కలిసిన": 8259,
      "సైట్": 8260,
      "అనర్": 8261,
      "లేదన్న": 8262,
      "శరీరానికి": 8263,
      "పుట్టినరోజు": 8264,
      "గ్రూపు": 8265,
      "ఉంద": 8266,
      "నానా": 8267,
      "గోధు": 8268,
      "చేసుకున్నాయి": 8269,
      "ఉన్నాం": 8270,
      "క్యారెక్టర్": 8271,
      "భద్రా": 8272,
      "కోడి": 8273,
      "పెండింగ్": 8274,
      "జాన": 8275,
      "భాగాలు": 8276,
      "కారులను": 8277,
      "పూర్లో": 8278,
      "అధ్యక్షులు": 8279,
      "చుకున్నారు": 8280,
      "చిన్నారులు": 8281,
      "లోన": 8282,
      "ఇంజినీ": 8283,
      "క్రియా": 8284,
      "సంస్థకు": 8285,
      "లేకపోయినా": 8286,
      "పెరుగుతున్నాయి": 8287,
      "గూర్చి": 8288,
      "అభ్యర్థులను": 8289,
      "ప్రక్రియను": 8290,
      "!!": 8291,
      "ఎలి": 8292,
      "లౌ": 8293,
      "నీయాం": 8294,
      "పొడవు": 8295,
      "ప్రయాణీ": 8296,
      "సంఘాల": 8297,
      "విజయవంతంగా": 8298,
      "చేరుకో": 8299,
      "శాలకు": 8300,
      "పొల": 8301,
      "ార్థం": 8302,
      "పరిశ్రమలో": 8303,
      "ట్రెండ్": 8304,
      "ఆయిల్": 8305,
      "చేస్తారని": 8306,
      "నిర్మలా": 8307,
      "నెలకొల్": 8308,
      "తాలూ": 8309,
      "లకడ": 8310,
      "జైలుకు": 8311,
      "న్నం": 8312,
      "రంజన్": 8313,
      "తరువా": 8314,
      "షాపు": 8315,
      "జోడించండి": 8316,
      "కార్యకలాపాలు": 8317,
      "ఏమిటంటే": 8318,
      "120": 8319,
      "స్వర": 8320,
      "వశాత్తు": 8321,
      "సెకండ్": 8322,
      "అల్లా": 8323,
      "హాల్": 8324,
      "కుర్ర": 8325,
      "ప్రభుత్వమే": 8326,
      "మూవీస్": 8327,
      "పొరపాటు": 8328,
      "మాంసం": 8329,
      "నార": 8330,
      "లతోపాటు": 8331,
      "నిలబడ": 8332,
      "అమ్మకాలు": 8333,
      "తార్": 8334,
      "దసరా": 8335,
      "నిత్యా": 8336,
      "విరి": 8337,
      "తాళ": 8338,
      "పెట్టె": 8339,
      "కోట్లుగా": 8340,
      "చూసినా": 8341,
      "దైవ": 8342,
      "జవ": 8343,
      "డనే": 8344,
      "ననే": 8345,
      "ప్రభాకర్": 8346,
      "పేదలకు": 8347,
      "పెరగడం": 8348,
      "వున్నాడు": 8349,
      "చాంపియన్": 8350,
      "తొలిసారిగా": 8351,
      "అప్పటికి": 8352,
      "అక్షర": 8353,
      "సీఏ": 8354,
      "శిటీ": 8355,
      "తెలంగాణకు": 8356,
      "డెలి": 8357,
      "చెబుతున్న": 8358,
      "హీరోయిన్గా": 8359,
      "వైఎస్సార్": 8360,
      "హాజరైన": 8361,
      "శబ్ద": 8362,
      "ఆదరి": 8363,
      "ఎట్ట": 8364,
      "నిఖ": 8365,
      "స్తీ": 8366,
      "లోంచి": 8367,
      "కాజల్": 8368,
      "ఉంటున్నారు": 8369,
      "నటిస్తుంది": 8370,
      "జరుగుతుందో": 8371,
      "చిత్తూరు": 8372,
      "గ్లోబల్": 8373,
      "జయలలిత": 8374,
      "ఈటల": 8375,
      "జైన": 8376,
      "బతు": 8377,
      "చెపు": 8378,
      "సాప్": 8379,
      "శివా": 8380,
      "పెట్టుకొని": 8381,
      "బహిష్": 8382,
      "53": 8383,
      "63": 8384,
      "ఉనికి": 8385,
      "ంచగలి": 8386,
      "కారుల": 8387,
      "హుటిన": 8388,
      "మద్దతుగా": 8389,
      "వెంకటేష్": 8390,
      "మొట్టమొదటి": 8391,
      "వైవిధ్య": 8392,
      "వామపక్ష": 8393,
      "భాగస్వామి": 8394,
      "అవసరమైతే": 8395,
      "వ్యూహా": 8396,
      "అంతరిక్ష": 8397,
      "ఇన్నింగ్స్లో": 8398,
      "నక్": 8399,
      "పద్ద": 8400,
      "మరుగు": 8401,
      "విగ్రహ": 8402,
      "చేయనుంది": 8403,
      "చెప్పడానికి": 8404,
      "విధమైన": 8405,
      "కావాలంటే": 8406,
      "ఎదుట": 8407,
      "నిఫెస్టో": 8408,
      "బీజేపీని": 8409,
      "డ్రో": 8410,
      "ఎదురుగా": 8411,
      "మరొకటి": 8412,
      "ఆయన్ను": 8413,
      "ఉపశమనం": 8414,
      "అల్లం": 8415,
      "బచ్చ": 8416,
      "ందరు": 8417,
      "నె్న": 8418,
      "అందరు": 8419,
      "ఇవ్వాలి": 8420,
      "పరిస్థితిలో": 8421,
      "భోజన": 8422,
      "రాజేష్": 8423,
      "ఖే": 8424,
      "సంధి": 8425,
      "గురించిన": 8426,
      "శరవేగంగా": 8427,
      "ఎవ్వరూ": 8428,
      "అంబానీ": 8429,
      "రెండింటి": 8430,
      "షర": 8431,
      "రిని": 8432,
      "తిన్న": 8433,
      "్రాజు": 8434,
      "తనదైన": 8435,
      "నిర్వహిస్తున్న": 8436,
      "కొంతకాలం": 8437,
      "కొనసాగుతున్నాయి": 8438,
      "ఇంటర్నేషనల్": 8439,
      "పరిమితి": 8440,
      "ఇటీవలి": 8441,
      "ఛార్జ్": 8442,
      "న్నింటినీ": 8443,
      "ఉద్ధ": 8444,
      "ఫైనా": 8445,
      "మీదే": 8446,
      "టెస్టులో": 8447,
      "మనోహర్": 8448,
      "అమెజాన్": 8449,
      "ఆచూకీ": 8450,
      "కేలకు": 8451,
      "తీసుకున్నాడు": 8452,
      "వెళ్లా": 8453,
      "జగన్మోహన్": 8454,
      "మెత్తారు": 8455,
      "మేయర్": 8456,
      "శ్వరు": 8457,
      "వాళ్ళకి": 8458,
      "సమాధానాలు": 8459,
      "బడ్డాడు": 8460,
      "విడత": 8461,
      "లేష్": 8462,
      "తీసింది": 8463,
      "వ్యాధులు": 8464,
      "ట్టుకుని": 8465,
      "చేస్తూనే": 8466,
      "మావోయిస్టు": 8467,
      "మలుపు": 8468,
      "టెన్షన్": 8469,
      "కనిపించలేదు": 8470,
      "పరారీ": 8471,
      "ఉపాధ్యక్ష": 8472,
      "వీలుగా": 8473,
      "తీసుకుంటున్న": 8474,
      "త్యాలు": 8475,
      "నడుస్తోంది": 8476,
      "చార్జి": 8477,
      "కానిస్టేబుల్": 8478,
      "కొనసాగ": 8479,
      "మరొ": 8480,
      "నిజాలు": 8481,
      "రాజేందర్": 8482,
      "ఎంటర్టైన": 8483,
      "నయనతార": 8484,
      "700": 8485,
      "పాడ": 8486,
      "దావీ": 8487,
      "క్రొ": 8488,
      "నువ్వే": 8489,
      "ఇస్తున్న": 8490,
      "తాగ": 8491,
      "వీడియోలో": 8492,
      "స్థలంలో": 8493,
      "ణుడు": 8494,
      "మైక్రో": 8495,
      "గలదు": 8496,
      "స్టేడియంలో": 8497,
      "షూట్": 8498,
      "గారికి": 8499,
      "కాన్ఫ": 8500,
      "విషాదం": 8501,
      "కుమారస్వామి": 8502,
      "చర్చనీయాం": 8503,
      "స్తోందన్నారు": 8504,
      "భారతీయులు": 8505,
      "గలను": 8506,
      "కించి": 8507,
      "జామున": 8508,
      "కోల్పోయి": 8509,
      "ఆపే": 8510,
      "హఠా": 8511,
      "నాతన": 8512,
      "వేశాడు": 8513,
      "భూషణ్": 8514,
      "ట్రాన్స్": 8515,
      "సెల్ఫీ": 8516,
      "వాట్సాప్": 8517,
      "ఉపసంహరి": 8518,
      "కపోయినా": 8519,
      "శృ": 8520,
      "సభా": 8521,
      "లేనని": 8522,
      "నిర్మూ": 8523,
      "అంతు": 8524,
      "ఠాకూర్": 8525,
      "ఖండించారు": 8526,
      "విరుద్ధంగా": 8527,
      "గరం": 8528,
      "యైన": 8529,
      "చిహ్": 8530,
      "జీతం": 8531,
      "స్థాప": 8532,
      "బయల్": 8533,
      "అహ్మద్": 8534,
      "విశాల": 8535,
      "మీనా": 8536,
      "జ్వరం": 8537,
      "బీఎస్": 8538,
      "సర్వో": 8539,
      "పక్షం": 8540,
      "చెబుతూ": 8541,
      "ఇస్తున్నారు": 8542,
      "మ్ర": 8543,
      "నిలకడ": 8544,
      "ప్రదర్శ": 8545,
      "లిన్": 8546,
      "పోతా": 8547,
      "పెంచింది": 8548,
      "కెసిఆర్": 8549,
      "పిల్లల్ని": 8550,
      "నేపథ్యంలోనే": 8551,
      "భక్తులకు": 8552,
      "విస్తృతంగా": 8553,
      "అతిథిగా": 8554,
      "ఎట్టకేలకు": 8555,
      "ఇను": 8556,
      "ఇతరులు": 8557,
      "రివ్యూ": 8558,
      "ఆర్ట్స్": 8559,
      "యోగ": 8560,
      "శంకు": 8561,
      "పదిహే": 8562,
      "అక్షయ్": 8563,
      "విరమణ": 8564,
      "లభ": 8565,
      "గుడు": 8566,
      "రెస్ట": 8567,
      "షోర్": 8568,
      "లేకపోయాడు": 8569,
      "ష్ఠా": 8570,
      "సేతు": 8571,
      "తమన్నా": 8572,
      "కాల్చి": 8573,
      "కెరీర్లో": 8574,
      "ములకు": 8575,
      "తోసి": 8576,
      "గిన్నె": 8577,
      "యులను": 8578,
      "నెల్": 8579,
      "మర్యాద": 8580,
      "అధ్యయన": 8581,
      "ఎమ్మెల్యేగా": 8582,
      "ఇన్ఫె": 8583,
      "తీసుకెళ్": 8584,
      "తిరుగుబాటు": 8585,
      "ఆప్షన్": 8586,
      "థీ": 8587,
      "ంచో": 8588,
      "ద్వార": 8589,
      "ఎదురుచూ": 8590,
      "దృష్ట్యా": 8591,
      "ఇజ్రాయిల్": 8592,
      "కమైన": 8593,
      "పెళ్ల": 8594,
      "పిల్లలతో": 8595,
      "పథకాన్ని": 8596,
      "హెలికా": 8597,
      "జోన్": 8598,
      "దంపతులు": 8599,
      "పురుగు": 8600,
      "యుగ": 8601,
      "ఇంతలో": 8602,
      "చేస్తామన్నారు": 8603,
      "ప్రారంభో": 8604,
      "ఫాస్ట్": 8605,
      "జడే": 8606,
      "సవాలు": 8607,
      "క్టు": 8608,
      "వేర": 8609,
      "క్షత్ర": 8610,
      "విజయాలు": 8611,
      "స్థలాన్ని": 8612,
      "ఈసీ": 8613,
      "కసర": 8614,
      "ొద్దని": 8615,
      "రాబట్టి": 8616,
      "పరికర": 8617,
      "్రాన్": 8618,
      "నటించి": 8619,
      "ప్రేరే": 8620,
      "ల్స్లో": 8621,
      "రెండోసారి": 8622,
      "పెళ్లికి": 8623,
      "రక్తపోటు": 8624,
      "కథానాయికగా": 8625,
      "ర్య": 8626,
      "ప్రసిద్ధి": 8627,
      "టీన్": 8628,
      "చెప్పినా": 8629,
      "రహస్య": 8630,
      "పరుగులకే": 8631,
      "మినహా": 8632,
      "దావీదు": 8633,
      "అహం": 8634,
      "లుకు": 8635,
      "చికెన్": 8636,
      "తెరు": 8637,
      "వచ్చేసింది": 8638,
      "స్తులను": 8639,
      "పరిచారు": 8640,
      "సూయ": 8641,
      "వ్యవహ": 8642,
      "వ్యూహం": 8643,
      "ఎక్కడో": 8644,
      "కార్మికుల": 8645,
      "టన్నుల": 8646,
      "వస్తారు": 8647,
      "సపోర్ట్": 8648,
      "అన్నం": 8649,
      "హైదరాబాదు": 8650,
      "ఆసక్తికరంగా": 8651,
      "ఆవిష్కరణ": 8652,
      "ణే": 8653,
      "నట": 8654,
      "న్నర్": 8655,
      "దృఢ": 8656,
      "పట్టించుకోలేదు": 8657,
      "ర్ట్": 8658,
      "మార్గా": 8659,
      "అవమాని": 8660,
      "అవతరి": 8661,
      "ంచుకొ": 8662,
      "బయటి": 8663,
      "కరణ్": 8664,
      "రాజకీయాల్లోకి": 8665,
      "74": 8666,
      "ంక్స్": 8667,
      "ఉత్సవ": 8668,
      "ఒంటి": 8669,
      "రకాలుగా": 8670,
      "సటి": 8671,
      "లిస్ట్": 8672,
      "ఎస్సై": 8673,
      "భూములు": 8674,
      "పరార": 8675,
      "ఇవ్వడానికి": 8676,
      "సౌదీ": 8677,
      "స్పందిస్తూ": 8678,
      "ప్రాజెక్టులు": 8679,
      "ద్రవ్యోల్": 8680,
      "అరే": 8681,
      "ముట్ట": 8682,
      "చోప్రా": 8683,
      "పాలయ్యారు": 8684,
      "యువకు": 8685,
      "హక్కులు": 8686,
      "కూరగాయ": 8687,
      "అల్లరి": 8688,
      "పరామర్": 8689,
      "మహమ్మద్": 8690,
      "ధృవీ": 8691,
      "బందో": 8692,
      "2000": 8693,
      "ఎదురై": 8694,
      "గుర్తుకు": 8695,
      "జొన్న": 8696,
      "నంత": 8697,
      "ఱ్": 8698,
      "గుట్ట": 8699,
      "క్రితమే": 8700,
      "సభ్యులను": 8701,
      "చావు": 8702,
      "తీసుకోండి": 8703,
      "దోహద": 8704,
      "పునరుద్ధరి": 8705,
      "వింత": 8706,
      "వేలకు": 8707,
      "అంతకంటే": 8708,
      "ప్లాట్": 8709,
      "ఛేది": 8710,
      "మసాలా": 8711,
      "అచ్చ": 8712,
      "ఆరే": 8713,
      "శస్త్ర": 8714,
      "రియో": 8715,
      "ద్దే": 8716,
      "శాస్త": 8717,
      "కార్మిక": 8718,
      "కుర్చీ": 8719,
      "ధ్వజమెత్తారు": 8720,
      "ఎద": 8721,
      "తెప్పి": 8722,
      "ంగే": 8723,
      "చిత్రంతో": 8724,
      "ఆమెతో": 8725,
      "గోవి": 8726,
      "ప్రపంచానికి": 8727,
      "వీలైనంత": 8728,
      "అలియా": 8729,
      "నదీ": 8730,
      "ముష": 8731,
      "బిఎస్": 8732,
      "జేబు": 8733,
      "శ్రీకారం": 8734,
      "దానిలో": 8735,
      "చర్యలకు": 8736,
      "కనబడ": 8737,
      "వద": 8738,
      "పరిశ్ర": 8739,
      "క్కున": 8740,
      "తీర్మా": 8741,
      "మీదికి": 8742,
      "తుందనే": 8743,
      "విజయవంతం": 8744,
      "కురిపి": 8745,
      "శబ్దం": 8746,
      "శిష్ట": 8747,
      "కాంగ్రెస్కు": 8748,
      "మానసి": 8749,
      "వ్యూహ": 8750,
      "దోహదం": 8751,
      "ఐశ్వర్య": 8752,
      "కల్లో": 8753,
      "దయా": 8754,
      "యాలని": 8755,
      "శూ": 8756,
      "మామిడి": 8757,
      "లాగు": 8758,
      "అధికారులతో": 8759,
      "125": 8760,
      "చట్టాలు": 8761,
      "రాలేదని": 8762,
      "ఏసీబీ": 8763,
      "హ్యు": 8764,
      "నుకు": 8765,
      "సుడు": 8766,
      "చెక్క": 8767,
      "స్వస్థ": 8768,
      "వందలాది": 8769,
      "ప్రయోజనాల": 8770,
      "అత్యుత్తమ": 8771,
      "కుప్పకూలి": 8772,
      "ఇంట్లోనే": 8773,
      "ఱ్ఱ": 8774,
      "వాం": 8775,
      "సంపన్న": 8776,
      "వుతున్నాయి": 8777,
      "సుకుమార్": 8778,
      "రాజకీయాలకు": 8779,
      "వచ్చాను": 8780,
      "సంతానం": 8781,
      "వస్తాయని": 8782,
      "రోగనిరోధక": 8783,
      "మేనేజర్": 8784,
      "భాస్కర్": 8785,
      "దంత": 8786,
      "రిమాండ్": 8787,
      "సిగ్": 8788,
      "వ్వడం": 8789,
      "కొనసాగింది": 8790,
      "దొర": 8791,
      "సిరీస్లో": 8792,
      "కురిసే": 8793,
      "ప్రజాస్వామ్యం": 8794,
      "శంగా": 8795,
      "కాడు": 8796,
      "చిత్రంగా": 8797,
      "చైనాలో": 8798,
      "2009": 8799,
      "బయలుదేరి": 8800,
      "మనుషులు": 8801,
      "షర్మిల": 8802,
      "పరస్పర": 8803,
      "ౌన్స్": 8804,
      "సమాజ్": 8805,
      "విధులు": 8806,
      "శుద్ధ": 8807,
      "విచారణను": 8808,
      "భాషలో": 8809,
      "ఎక్కడికి": 8810,
      "ఇంగ్లీషు": 8811,
      "కట్టే": 8812,
      "ొచ్చని": 8813,
      "డున్న": 8814,
      "లీగ్": 8815,
      "కర్మ": 8816,
      "ఎవరిని": 8817,
      "నొక్కి": 8818,
      "ధర్మం": 8819,
      "స్థానికంగా": 8820,
      "అంతరాయం": 8821,
      "76": 8822,
      "అక్రమంగా": 8823,
      "నాడ": 8824,
      "ప్రాంతాన్ని": 8825,
      "వెంకట్": 8826,
      "అప్పులు": 8827,
      "ీత": 8828,
      "రూపొందుతున్న": 8829,
      "సేజ్": 8830,
      "అనగా": 8831,
      "వెళ్లాడు": 8832,
      "పోయారని": 8833,
      "అనంతపురం": 8834,
      "సోదాలు": 8835,
      "కృతి": 8836,
      "ప్రత్యేకత": 8837,
      "నరేష్": 8838,
      "సాయంతో": 8839,
      "ప్లాంట్": 8840,
      "పంటలు": 8841,
      "సంక్షోభం": 8842,
      "స్క్రిప్ట్": 8843,
      "అపో": 8844,
      "ఏడ్": 8845,
      "నవల": 8846,
      "వరో": 8847,
      "టిక్స్": 8848,
      "అవమాన": 8849,
      "ఆసక్తికర": 8850,
      "పట్టుకొని": 8851,
      "ండం": 8852,
      "వర్కింగ్": 8853,
      "2012": 8854,
      "కలిశారు": 8855,
      "పట్టా": 8856,
      "స్తున్నానని": 8857,
      "చెబుతారు": 8858,
      "పురుషు": 8859,
      "నివేదికను": 8860,
      "నక్షత్ర": 8861,
      "మోదీని": 8862,
      "శిల్": 8863,
      "ఎదుగు": 8864,
      "తీర్చ": 8865,
      "ఏరియా": 8866,
      "వెలికి": 8867,
      "వంశ": 8868,
      "ఫిలిం": 8869,
      "కనిపిస్తున్నాయి": 8870,
      "సంగీతాన్ని": 8871,
      "ఖర్చులు": 8872,
      "పోరాడ": 8873,
      "మల్టీ": 8874,
      "పాలకులు": 8875,
      "ఆనందాన్ని": 8876,
      "వెర్షన్": 8877,
      "79": 8878,
      "చల": 8879,
      "ట్టమైన": 8880,
      "కలిసే": 8881,
      "వ్యవస్థలో": 8882,
      "చేపట్టింది": 8883,
      "ప్రకాశ్": 8884,
      "చ్ఛి": 8885,
      "హుటాహుటిన": 8886,
      "టప్": 8887,
      "మిక్స్": 8888,
      "ఉండదని": 8889,
      "విధానాలు": 8890,
      "బాలుడు": 8891,
      "రెస్టారె": 8892,
      "ఆచరి": 8893,
      "ప్రవీ": 8894,
      "లేరని": 8895,
      "చురు": 8896,
      "చెప్పాల్సిన": 8897,
      "ఉంటారని": 8898,
      "జోడీ": 8899,
      "ఎదుర్కోవ": 8900,
      "మహాత్మా": 8901,
      "కియా": 8902,
      "శాను": 8903,
      "వరస": 8904,
      "ప్రాంతంలోని": 8905,
      "తగ్గిస్తుంది": 8906,
      "బాధితురాలు": 8907,
      "సిబిఐ": 8908,
      "ఎండి": 8909,
      "ంటన్": 8910,
      "సీక్": 8911,
      "చెప్పాలంటే": 8912,
      "మరుసటి": 8913,
      "స్టూడియో": 8914,
      "ఎందరో": 8915,
      "వుతోంది": 8916,
      "ఉండేందుకు": 8917,
      "ముగియ": 8918,
      "ఏళ్లుగా": 8919,
      "మూడేళ్ల": 8920,
      "బ్రిటిష్": 8921,
      "ఎయి": 8922,
      "గురూ": 8923,
      "వెళ": 8924,
      "జీవో": 8925,
      "స్టల్": 8926,
      "అదిరి": 8927,
      "య్యాయని": 8928,
      "సీపీఐ": 8929,
      "ఫోన్లు": 8930,
      "రాయితీ": 8931,
      "ఉస్మా": 8932,
      "కనే": 8933,
      "నిండా": 8934,
      "లేమని": 8935,
      "నిర్ణీత": 8936,
      "సింగిల్": 8937,
      "లక్ష్యంతో": 8938,
      "పోవడానికి": 8939,
      "ఆహ్వా": 8940,
      "విస్తీర్": 8941,
      "శార": 8942,
      "ష్మా": 8943,
      "ంచామన్నారు": 8944,
      "పరస్పరం": 8945,
      "రాళ్లు": 8946,
      "బిహార్": 8947,
      "షింగ్": 8948,
      "జరగాల్": 8949,
      "మ్యాన్ని": 8950,
      "బౌలర్లలో": 8951,
      "జడేజా": 8952,
      "పరిచే": 8953,
      "ఆర్బీఐ": 8954,
      "యూరో": 8955,
      "ఎలాగ": 8956,
      "చూడలేదు": 8957,
      "కొంతకాలంగా": 8958,
      "తీసుకోలేదు": 8959,
      "కార్పొరేట్": 8960,
      "యాజమాన్యం": 8961,
      "థర్": 8962,
      "రాశి": 8963,
      "కోత": 8964,
      "జాడ": 8965,
      "సమయ": 8966,
      "విద్యాశాఖ": 8967,
      "డ్రామా": 8968,
      "ంచబడు": 8969,
      "కోమటి": 8970,
      "రెడ్డికి": 8971,
      "మునుగోడు": 8972,
      "సబ్జెక్": 8973,
      "ఆదేశాల": 8974,
      "మాణి": 8975,
      "జరిగిందో": 8976,
      "మంత్రుల": 8977,
      "పరుగె": 8978,
      "ఎవరె": 8979,
      "జైలులో": 8980,
      "350": 8981,
      "ర్రె": 8982,
      "మూల్": 8983,
      "ఉండబో": 8984,
      "శీతా": 8985,
      "వంతె": 8986,
      "గుర్తించిన": 8987,
      "చేస్తున్నాను": 8988,
      "ఇస్తూ": 8989,
      "పాఠశాలలో": 8990,
      "మాటా": 8991,
      "వేస్తూ": 8992,
      "బెడ్": 8993,
      "మహబూ": 8994,
      "చేస్తుంటారు": 8995,
      "మనుషుల": 8996,
      "గణాం": 8997,
      "పెర": 8998,
      "సీతా": 8999,
      "ధాన్యం": 9000,
      "పేదరి": 9001,
      "ప్లేయర్": 9002,
      "మలే": 9003,
      "ల్కర్": 9004,
      "సిద్ది": 9005,
      "నేతలను": 9006,
      "ఉల్లిపాయ": 9007,
      "ఈమధ్య": 9008,
      "కంత": 9009,
      "చెరి": 9010,
      "కెళ్": 9011,
      "విజయన": 9012,
      "యత్ని": 9013,
      "పర్యటనకు": 9014,
      "మనోజ్": 9015,
      "నిబంధనలను": 9016,
      "కుదుర్చు": 9017,
      "పృ": 9018,
      "చిక్క": 9019,
      "అనౌన్స్": 9020,
      "కొనసాగుతుంది": 9021,
      "పొందుతారు": 9022,
      "అడిగారు": 9023,
      "బృందాలు": 9024,
      "ఇంజనీరింగ్": 9025,
      "బస్తు": 9026,
      "రుడు": 9027,
      "మొండి": 9028,
      "బీఎస్పీ": 9029,
      "అంజ": 9030,
      "లేఖలో": 9031,
      "స్రో": 9032,
      "ఇసుక": 9033,
      "సకాలంలో": 9034,
      "వెస్టి": 9035,
      "వీట": 9036,
      "జరుగుతాయి": 9037,
      "దొరి": 9038,
      "రిజర్వేషన్లు": 9039,
      "ఐదేళ్ల": 9040,
      "త్తీస్గఢ్": 9041,
      "పరారీలో": 9042,
      "మెచ్చు": 9043,
      "పేదల": 9044,
      "మనము": 9045,
      "సంతోష్": 9046,
      "సెన్సార్": 9047,
      "ఆస్తులు": 9048,
      "యిన్స్": 9049,
      "వెన్నె": 9050,
      "స్తుందా": 9051,
      "మంత్": 9052,
      "ఫీల్డ్": 9053,
      "లక్నో": 9054,
      "గొప్పగా": 9055,
      "బహుళ": 9056,
      "రిజర్వ్": 9057,
      "ఓటింగ్": 9058,
      "తై": 9059,
      "సరు": 9060,
      "అందించాలని": 9061,
      "నేతలతో": 9062,
      "డొనాల్డ్": 9063,
      "ద్రవ్యోల్బ": 9064,
      "యట": 9065,
      "పురో": 9066,
      "వేష": 9067,
      "క్రింది": 9068,
      "ఒక్కరు": 9069,
      "రావాల్సి": 9070,
      "ఆరోగ్యకరమైన": 9071,
      "అప్డేట్": 9072,
      "హిందువులు": 9073,
      "ఇప్పి": 9074,
      "ఇదొక": 9075,
      "దత్": 9076,
      "కోట్లా": 9077,
      "డాక్యు": 9078,
      "చెందినట్లు": 9079,
      "ఎమ్మెల్యేల": 9080,
      "క్లాస్": 9081,
      "ఇండస్ట్రీలో": 9082,
      "అదృష్టం": 9083,
      "స్వాగతి": 9084,
      "గర్భి": 9085,
      "గణేష్": 9086,
      "చక్కటి": 9087,
      "శాశ్వ": 9088,
      "రెట్టింపు": 9089,
      "బయల్దే": 9090,
      "అసాధారణ": 9091,
      "గుహ": 9092,
      "వుతాయి": 9093,
      "ధరలను": 9094,
      "కుటుంబాన్ని": 9095,
      "టోర్నీలో": 9096,
      "ఉస్మానియా": 9097,
      "చారాలు": 9098,
      "నమెంట్": 9099,
      "స్వర్ణ": 9100,
      "టిని": 9101,
      "వెన్ను": 9102,
      "చిత్రాలలో": 9103,
      "శ్రీరామ్": 9104,
      "కనిపిస్తాయి": 9105,
      "తగ్గిన": 9106,
      "కుమార్తెలు": 9107,
      "నిందితుడి": 9108,
      "విలీనం": 9109,
      "కిషోర్": 9110,
      "దిష్ట": 9111,
      "వల్లనే": 9112,
      "2019లో": 9113,
      "అలె": 9114,
      "బంద్": 9115,
      "ృం": 9116,
      "వైనా": 9117,
      "గొట్టే": 9118,
      "ంపల్లి": 9119,
      "ప్రయోగం": 9120,
      "కనబడు": 9121,
      "బదులుగా": 9122,
      "ఎపిసో": 9123,
      "బచ్చన్": 9124,
      "షన": 9125,
      "స్పై": 9126,
      "లేషన్": 9127,
      "పైల": 9128,
      "ళ్ళలో": 9129,
      "మేనేజ్": 9130,
      "ఖైదీ": 9131,
      "పర్యాటకులు": 9132,
      "టనే": 9133,
      "ళన": 9134,
      "వుండగా": 9135,
      "యుధ": 9136,
      "క్కులు": 9137,
      "శ్రమి": 9138,
      "ఏర్పడ": 9139,
      "పరుగులకు": 9140,
      "వర్షాల": 9141,
      "రోజుల్లోనే": 9142,
      "తర్వాతే": 9143,
      "జడ్జి": 9144,
      "అక్కి": 9145,
      "లిప్": 9146,
      "మిస్టర్": 9147,
      "అనుప": 9148,
      "నూరు": 9149,
      "మర్చిపో": 9150,
      "విద్యార్థిని": 9151,
      "ఆశ్రయించారు": 9152,
      "మిశ్రమాన్ని": 9153,
      "పరిగణన": 9154,
      "బందోబస్తు": 9155,
      "61": 9156,
      "73": 9157,
      "ఔట్": 9158,
      "డ్రెస్": 9159,
      "నడ్డా": 9160,
      "వదల": 9161,
      "సజీవ": 9162,
      "నిర్వర్తి": 9163,
      "ధావన్": 9164,
      "ందానికి": 9165,
      "మ్యాన్": 9166,
      "విషయమే": 9167,
      "పనులకు": 9168,
      "స్వచ్ఛంద": 9169,
      "నిజామాబాద్": 9170,
      "ఇతరుల": 9171,
      "రసాయన": 9172,
      "వణికి": 9173,
      "కానున్నాయి": 9174,
      "పరిగె": 9175,
      "పడుతున్నా": 9176,
      "నియమ": 9177,
      "చూడగానే": 9178,
      "నక్క": 9179,
      "రంగానికి": 9180,
      "ఇష్టపడ": 9181,
      "కీలకం": 9182,
      "నిఖిల్": 9183,
      "మద్రా": 9184,
      "ముహ": 9185,
      "వీక్షి": 9186,
      "జ్జు": 9187,
      "సర్టిఫి": 9188,
      "వృద్ది": 9189,
      "బాగుంటుంది": 9190,
      "ప్రణాళికలు": 9191,
      "కరిగి": 9192,
      "థ్య": 9193,
      "కులం": 9194,
      "ములా": 9195,
      "పానికి": 9196,
      "నియోజకవర్గాల్లో": 9197,
      "డెలివరీ": 9198,
      "టొ": 9199,
      "భట్": 9200,
      "విశే్": 9201,
      "కాయలు": 9202,
      "సునా": 9203,
      "జరిగినట్లు": 9204,
      "గంటకు": 9205,
      "విధాలుగా": 9206,
      "బ్రిడ్": 9207,
      "పరుస్తుంది": 9208,
      "ఆఫీస్": 9209,
      "పక్కా": 9210,
      "గులకు": 9211,
      "అనివార": 9212,
      "సైన్యా": 9213,
      "ప్రయత్నించండి": 9214,
      "క్లబ్": 9215,
      "దాబాద్": 9216,
      "బాధా": 9217,
      "మేజ్": 9218,
      "గంభీ": 9219,
      "పోర్ట్స్": 9220,
      "చక్రవర్తి": 9221,
      "కాంగ్రెసు": 9222,
      "ద్వైపాక్షిక": 9223,
      "ఉప్ప": 9224,
      "రద్దీ": 9225,
      "నాకే": 9226,
      "టీఎంసీ": 9227,
      "ఇంకే": 9228,
      "పంపారు": 9229,
      "ఫోటోలను": 9230,
      "దయచేసి": 9231,
      "హోంమంత్రి": 9232,
      "అర్ధరాత్రి": 9233,
      "ల్యాండ్": 9234,
      "విభేదాలు": 9235,
      "కౌన్సిల్": 9236,
      "మానసికంగా": 9237,
      "ఇన్నా": 9238,
      "కదూ": 9239,
      "జవాన్": 9240,
      "తలెత్తు": 9241,
      "సదుపాయాలు": 9242,
      "అవాంఛ": 9243,
      "గదా": 9244,
      "కిటికీ": 9245,
      "లియ": 9246,
      "వుని": 9247,
      "పెర్": 9248,
      "సరస్సు": 9249,
      "ఫెల్": 9250,
      "విమానాలు": 9251,
      "సీతారామ": 9252,
      "శతాబ్ద": 9253,
      "విలు": 9254,
      "అందుకున్నారు": 9255,
      "వర్గాలకు": 9256,
      "మాట్లాడటం": 9257,
      "సీసీటీవీ": 9258,
      "థియేటర్లలో": 9259,
      "కమ్యూనిస్టు": 9260,
      "విరుచుకుపడ్డారు": 9261,
      "శ్రీనివాసరావు": 9262,
      "ఆవ": 9263,
      "భువనే": 9264,
      "ఆర్సీ": 9265,
      "మాటే": 9266,
      "ఉండేవారు": 9267,
      "హక్కులను": 9268,
      "భాగస్వామ్యం": 9269,
      "హాలీవుడ్": 9270,
      "ఇదో": 9271,
      "హత్యా": 9272,
      "రాయల": 9273,
      "తిప్ప": 9274,
      "నాగ్": 9275,
      "త్రై": 9276,
      "రోజువారీ": 9277,
      "సమావేశాల్లో": 9278,
      "పనుల": 9279,
      "ప్రకటనలు": 9280,
      "కాన్ఫరెన్స్": 9281,
      "లయన్స్": 9282,
      "లేకుంటే": 9283,
      "మనవ": 9284,
      "ంబో": 9285,
      "అందించింది": 9286,
      "రావి": 9287,
      "ప్రతిదీ": 9288,
      "ఫ్ల": 9289,
      "జరుపుతున్నారు": 9290,
      "ంచనున్నాడు": 9291,
      "వైద్య": 9292,
      "అభినందించారు": 9293,
      "నాగేశ్వరరావు": 9294,
      "దుండగులు": 9295,
      "ఆజా": 9296,
      "ప్రతా": 9297,
      "బిన్": 9298,
      "సెంట్": 9299,
      "మంత్రివర్గ": 9300,
      "చేసుకుంటున్నారు": 9301,
      "వనరుల": 9302,
      "ఐటి": 9303,
      "ప్రమే": 9304,
      "యావ": 9305,
      "కారులకు": 9306,
      "స్థిరంగా": 9307,
      "త్తుల": 9308,
      "చర్చల": 9309,
      "ప్రయాణిస్తున్న": 9310,
      "ఆంధ్రప్రదేశ్లో": 9311,
      "ఎలక్ట్రా": 9312,
      "డెవలప్": 9313,
      "బస్టర్": 9314,
      "స్ను": 9315,
      "ప్రకార": 9316,
      "ఉండకూడదు": 9317,
      "కావడానికి": 9318,
      "మహిళలను": 9319,
      "ందరినీ": 9320,
      "నిపుణుల": 9321,
      "మృత్యువాత": 9322,
      "వుడి": 9323,
      "తెచ్చే": 9324,
      "యూర": 9325,
      "చేపట్టాలని": 9326,
      "ఆరోపణలను": 9327,
      "గ్యాంగ్": 9328,
      "పట్టుకున్నారు": 9329,
      "ప్రస్తావించారు": 9330,
      "కిడ్నీ": 9331,
      "ఏజెన్సీ": 9332,
      "విడాకులు": 9333,
      "ప్రాతినిధ్యం": 9334,
      "అకౌంట్": 9335,
      "దనే": 9336,
      "స్కోర్": 9337,
      "రోజా": 9338,
      "హీరోలు": 9339,
      "ముఖర్జీ": 9340,
      "మరణించాడు": 9341,
      "పలకరి": 9342,
      "కాలానికి": 9343,
      "బుద్ధ": 9344,
      "రాజమండ": 9345,
      "బోతున్నారు": 9346,
      "పరిశోధనలు": 9347,
      "ఛాలె": 9348,
      "డన్న": 9349,
      "శృతి": 9350,
      "కుల్లో": 9351,
      "సికింద": 9352,
      "సమృ": 9353,
      "అభిషేక్": 9354,
      "మీడియాకు": 9355,
      "వెళ్లిపోయారు": 9356,
      "సహాయంతో": 9357,
      "ంటున్నాం": 9358,
      "సబ్సి": 9359,
      "తమ్ముడు": 9360,
      "తగ": 9361,
      "రాజశేఖర్": 9362,
      "ప్రపంచాన్ని": 9363,
      "అతనిపై": 9364,
      "మిక్రాన్": 9365,
      "జ్ఞానాన్ని": 9366,
      "బౌద్ధ": 9367,
      "ట్రిపుల్": 9368,
      "కరెంట్": 9369,
      "అనారోగ్యంతో": 9370,
[...]
